#version: 0.2
Ġ t
á »
u t
n g
á º
Ġ c
a n
Ġt h
p ut
: "
" :"
i n
a t
. "
e s
Ġ Ä
ĠÄ ĳ
Ã ł
Ġt o
Ġ n
e t
a m
Ġ s
Ġ h
Ġ l
at e
Ġ b
Ġ m
o ut
T r
Ġ V
e r
es e
an s
Ġ v
ĠV i
, "
l ate
n am
ĠVi et
ĠViet nam
Tr ans
ĠVietnam ese
out put
in put
Trans late
{ "
č Ċ
Æ °
o n
." ,"
Ġth e
Ġ a
." }
Ã ¡
Ã ´
Ġc h
Ġ p
Ġ w
Ġ k
Ġ d
Ġ g
o r
Ġt r
e n
Æ° á»
Ã ³
o u
i s
áº ¿
i á»
Ġn h
e d
Ġ r
i t
Ġ o
a r
á» Ļ
n h
Ġ an
Ġ f
Ġk h
a l
áº ¡
i ng
Ġ ng
Ġo f
áº £
Ġ in
Ġ I
Ġv Ãł
Ã ª
áº ¥
Ġl Ãł
Ġc á»
Ã´ ng
Ġ T
Ġp h
á» ĳ
a s
c h
Ã ¢
Ġan d
r e
o m
Ġ S
Ġ A
§ a
Ġcá» §a
áº Ń
Ġ y
e l
Ã ¬
Ãª n
Ġ 1
Ġv á»
Ġ C
a y
á»Ļ t
i on
Ġth á»
i c
i l
ĠÄĳ á»
q u
Ã´ i
Æ°á» £
Ã¡ c
i áº¿
o ng
u s
iá» ĩ
Ġm á»Ļt
Ġ M
Ġy ou
ĠT h
Æ ¡
Ã £
áº §
Ġc Ã³
Ã º
Ľ i
Ġ qu
Æ°á» Ŀ
\ "
Ġt á»
Æ°á»£ c
Ä ĥ
o t
Ġ B
o w
l e
en t
ĠÄĳ Æ°á»£c
Ġg i
Ġ H
Ġ e
Ã Ń
? "
v e
á» į
Ġkh Ã´ng
á» Ł
i m
áº¡ i
áº¥ t
o l
Ġ 2
e c
i d
Ġ is
Ġ N
u y
Ãł y
á» ¯
Ġ P
a d
l y
ĠÄĳ Ã£
' s
u r
o s
Ġ x
. .
Ġ (
Ġ on
Ġw h
Ġ W
i g
Ġtr ong
Ġt Ã´i
áº ¯
Æ°á»Ŀ i
Ġc Ã¡c
Ġ L
Ġth at
Ġf or
Ġt a
i r
Äĥ m
er e
Ġb e
á» ±
Ġng Æ°á»Ŀi
Ġch o
t er
v er
Ġch á»
Ġ it
Ġw as
Ġ D
u n
a ng
Ġvá» Ľi
Ġc on
Ãº ng
iá» ģ
t h
i Ãªn
e m
ĠTh e
Ã¢ n
c e
Ã¬ nh
Ġ G
0 0
Ġn Ã³
Ġn Äĥm
ĠÄĳ Ã³
Ġh a
it h
áº£ i
r o
Ġ1 9
Ġs t
áº§ n
Ġng h
á» ĭ
Ãł nh
á»¯ ng
Ġ á»Ł
at ion
Ġa l
Ġ R
áº¥ y
á» ĩ
a o
Ġnh Æ°
Ã¢ y
Ġn Ãły
áº ·
c t
Ġ F
a u
Ġ \"
Ġ K
Ã ²
Ġw ith
áº ½
Ã ¹
Ġthá» ĥ
?" ,"
iá»ģ u
?" }
s t
n d
Ġnh á»¯ng
i a
o p
u á»ĳ
an d
áº¿ n
áº§ u
Ġa s
" }
á» ¥
iáº¿ t
l d
Ġh á»į
Ġr e
Ġ Y
Ġr a
u l
á» ĵ
Ġ E
Ġg iá»
i f
es t
ĠvÃł o
o d
Æ°á» Ľ
Ġd o
Ġc Ã¡
© ng
Ġ J
il l
Ã¡ ng
Ġs áº½
iá» ĥ
Ġan h
Ġ O
a g
áº ±
u m
ig h
Æ° Æ¡
k e
Ġs h
Ġ -
Ġtá» «
Ġch Ãºng
ĠÄĳ áº¿n
áºŃ t
iá»ĩ n
Ġw e
' t
in h
a in
ĠÄĳá» ĥ
Ġkh i
Ġf r
er s
ĠÄĳ á»Ļ
an t
ĠlÃł m
Ġh e
Ġa re
es s
Ãł i
Ġl o
áº¿ t
áº£ n
is t
ÃŃ nh
Ġm e
Ä ©
Ġh o
ĠC h
áº¡ n
Ġ at
Æ°á»Ľ c
Æ°á»Ŀ ng
Ġs á»ĳ
Ŀ i
Ġth is
áºŃ n
áº± ng
Æ°Æ¡ ng
r i
© c
u ng
Ġc áº£
Ġs á»±
a p
Ġc om
iáº¿ n
us t
el l
Ġha ve
" ,"
Ġb y
Æ¡ n
a b
Ġph áº£i
Ġ2 0
Ġvá» ģ
Ä Ĳ
igh t
Ġth Ãłnh
u p
Ã¡ t
Ġl á»
g h
Ã¹ ng
a i
Ġn ot
ĠÄĳ áº§u
ar t
Ãł n
.. .
ou r
Ġn e
Ġfr om
Ã ©
áºŃ p
C h
á» ķ
Ãł o
Ġ or
á» ı
Ġd e
ou ld
Ã¢ u
Ġ Ã´ng
ec t
Ġ U
T Ã´i
or e
Ġs e
Ġm Ãł
Ġc an
ĠÄ Ĳ
Ġg o
Ġp ro
al l
i es
Å ©ng
Ġth Ã¡ng
á»Ļ c
an h
it y
á»ĳ i
iá»ĩ c
Ġt áº¡i
Ġth áº¿
Ġg Ã¬
r a
al ly
Ãł ng
ĠI n
Ġl áº¡i
Ġc Ã´
Ã ½
ĠnÃ³ i
ĠY ou
ĠÄĳ i
Ġe x
Ġb á»ĭ
ĠI t
Ġk n
om e
i v
Ġ20 1
en d
Ġb iáº¿t
b er
Ġch uy
ar d
o k
Ġa b
or t
á» ģ
Ġc Å©ng
Ġ j
h er
Ġ us
Ġv iá»ĩc
â Ģ
Ġs á»
p p
u á»Ļc
± c
Ġng Ãły
Ġs o
Ġkn ow
h i
e ar
Ġtr Ãªn
Ġp r
a k
Ġ un
Ġ 3
Ġc Ã´ng
Ġ2 00
as t
Ã¡ i
áº· c
Ġw or
á»ĵ i
u d
Ġnh Ãł
in e
Ġchá» ī
ĠA nd
am e
Æ¡ i
i e
Ġal l
ĠÄĳá» ĭ
i ch
i ve
Ġh Æ¡n
Äĥ ng
a c
Ġm y
Ġyou r
ĠÄĳ Ã¢y
Ġs u
Ġnh áº¥t
Ġp l
Ġhá»į c
Ġm á»
á»į i
Ġkh Ã¡c
Ġe m
N h
ĠÄĳ ang
Ġt iáº¿
ou gh
ou s
e p
áº¯ t
Ġch ÃŃnh
Ġngh Ä©
ĠÄĳ iá»ģu
Ġs p
Ġd á»¥
áºŃ u
":" -
áº «
uá»ĳ n
Ã² n
Ġh is
on e
T h
ÃŃ ch
os t
á»ĳ c
Ġnh iá»ģu
ou nd
áº¿ u
is h
Ã¡ n
m ent
ĠW h
' re
á»ĩ n
Ġgi a
Æ° a
id e
i an
áº¯ c
Ġw ere
á»Ļ i
áºŃ y
á»ģ n
Ġs au
Ġb áº¡n
Ġth áº¥y
ĠH e
n t
Ã¡ o
Ġthe y
Ġon e
á» £
á» ĥ
Ì ģ
Ġ Tr
a v
i Ãª
Ġl e
iá»ĩ u
Ġb ut
Ġthá» ©
ĠS t
Ġh er
Ãº c
r y
Ġa r
áº¡ o
ĠÄĳá»Ļ ng
in d
Ġr áº±ng
Ġwh at
l l
áº£ o
o g
Ġl i
Ġab out
Ġm Ã¬nh
Ġm uá»ĳn
ĠcÃ¡ ch
Ġ out
p l
Ġ áº¥y
áº ©
ar y
Ġqu an
im e
áº¯ n
á»Ł i
Ġh iá»ĩn
ĠS h
ĠÄĳá» ģ
á»ĳ ng
Ġn Ãło
áº· t
Ã´ n
Ġqu y
u re
Ã¢ m
ĠnhÆ° ng
Ġth u
d er
Ġc Ã²n
Ġn á»¯
ĠÄĳá» ĵ
Æ°á»£ ng
u b
ate d
Ġh as
Æ°á» Ł
áº« n
Ġv Ã¬
in k
s e
a ch
Ġth ere
Æ°á»Ł ng
Ã¡ p
áº£ ng
Ġh ad
e w
Ġr á»ĵi
Ġ up
Ġs ao
Ġsá» Ń
Ġph Ã¡t
áº »
' m
u e
á» §
ĠW e
i z
i al
Ġ 4
Ã² ng
) ,
ĠcÃ¡ i
Ġc Ã¹ng
g e
iá»ĥ u
Ì Ģ
f f
Ġthá» Ŀi
Ġwh o
Ġdá»¥ ng
áº¡ t
Ġwh ich
Ġthe o
Ġ 5
Ġha i
th er
Ġr áº¥t
Ġm an
Ġ Q
Ġc uá»Ļc
Ġj ust
Ġnh Ã¢n
ic e
Ã¡ nh
o v
Ġthá» ±c
ion s
Ġin t
Ġsh e
Ã¡ ch
áº¥ p
Ġli ke
Ġth Ã¬
iá»ĥ n
áº¥ n
s o
Ġkh o
ir st
c c
Ġh Ãłnh
áº¥ u
A nh
Æ° ng
á»ķ i
Ġtr Æ°á»Ľc
ĠÄĳá»ĭ nh
Ġb á»Łi
Ġk á»
á»± c
p er
i b
a us
Ġx u
ĠP h
Äĥ n
áº ¹
Ġtá» Ľi
o b
Ġb ec
iá»ĥ m
Ġb á»Ļ
os e
Ġlá» Ľ
Ġd on
iá»ĩ t
á»¥ c
i p
Ġg et
Ġbe en
Ġnh áºŃn
Ġh Ã¬nh
Ġh im
a ce
Ġb áº£n
Ġgiá» Ŀ
Ġtá» ±
a w
Ġgiá» Ľi
V Ãł
Ġb ao
iá» ħ
Ġchuy á»ĩn
Ġw ant
Ġw ould
Ġa g
ĠS o
á»£ p
Ġs ome
Ġb áº±ng
w o
Ġp e
Ġw ill
âĢ ĵ
ic al
Ġ1 8
Ġc o
ag e
Ġc áºŃu
Ġg r
Ġcon t
áº¡ c
Ġthe ir
Ġf irst
Ġn Æ°á»Ľc
Ġv áºŃy
or d
a h
v en
Ġthe m
Ġh á»£p
Ġb áº¯t
Ġt ime
Ġlá»Ľ n
Ġqu a
Ġc áº§n
Ġ im
Ġcá» ©
Ġv iÃªn
á» «
Ch Ãºng
Ġy ear
Ġxu áº¥t
Ġtr á»Ł
f ter
Ġm a
áº¡ ng
Ã¬ m
ig n
en ce
ĠN h
Ġs inh
Ġl u
ow n
á»ĭ ch
Ġp art
Ġh ere
Ġal so
Ġch iáº¿n
Ġan y
Ġl Ãªn
Ġth ink
Ġm ore
op le
Ġn Ãªn
Ġk áº¿t
Ġt iÃªn
ou nt
p ort
on d
Ġ if
et h
Ġc l
Ġ 6
Ġd á»±
Ġqu á»ĳc
Ġph áº§n
as e
en s
Ġt Ãªn
Ġgiá» ¯
p t
Ġa d
iá»ĩ m
Ġwh en
a ct
Ġin c
ĠÄĳá»ĵ ng
ĠA r
ĠÄĳ o
ay s
i re
á»ı i
aus e
! ","
N g
an ce
m er
Ġt Ã¬m
Ġtiáº¿ p
Ġn o
h Ã´ng
p r
f er
r u
Ġsá»ĳ ng
Ã¡ y
Ġh Ãłng
ĠTh is
iá»ģ n
it t
Ġvá» ĭ
Ì £
Ġph ÃŃ
ol l
uá»ĳ c
Ġ19 9
Ġmá» Ľi
Ġl Ã½
ul t
or m
il e
Ġt á»ĳ
Ġc Æ¡
ar e
Ġr ec
Ġwor k
ate r
Ġr es
Ġt in
á»Ļ ng
n e
iá»ħ n
Ĺ i
re e
ation s
Ġd id
ĠB ut
Ġho áº·c
Ġo ther
N Ã³
Ġtr Æ°á»Ŀng
Ġtr Ã¬nh
ar k
Ġe ver
Ġg á»įi
n a
Ġ Ã
Ġ1 0
Ġp er
or y
Ġgi áº£i
ĠA l
at h
ĠÄĳá» ķ
Ġth Æ°á»Ŀng
Ġo ver
it e
. \"
Ġs a
Ġr ight
Ġná»¯ a
Ġpe ople
Ġt u
ĠU n
o y
l and
! "}
Ġ 7
ĠF r
' ll
Ġit s
á»ĥ n
Ġt wo
Ġth an
Ġb r
Ġt áº¡o
uy Ãªn
Ġh ay
C Ã¡c
ing s
00 0
Ġt áº¿
Ġng o
Ġ en
Ġd is
Ġl áº§n
ter n
Ġkh u
iá»ĩ p
á»į n
Ġth á»ĳng
d u
Ġqu Ã¢n
Ġtá» ķ
Ġl áºŃp
Ġt ÃŃnh
Ġvá» ¥
Ġm u
Ġth Ã´ng
ol d
Ġv áºŃt
Ġof f
á» ©c
' ve
ĠÄĳ á»ĳi
Ġb u
Ġa ct
Ġl Æ°á»£ng
ad e
Ġcom p
i ver
ĠÄĳ áº¡i
os s
Ġnh au
iÃª u
Ġchá» §
Ġn ow
Ġint o
Ġa pp
ĠSh e
Tr ong
Ġ 8
it ion
Ġgi an
Ġd Ã¢n
M á»Ļt
Ġr el
f t
m an
Nh Æ°ng
Ġh á»ĩ
Ã³ a
Ķ ng
Ġh á»Ļi
Ġc ould
ot her
Ġse e
is s
Ġtiáº¿ ng
Ġ Ã½
ĠM ar
Ġ our
Ġb et
Ġnh iÃªn
il d
r ic
Ġon ly
Ã³ ng
or n
Ġch iáº¿
ĠÄĳ Ã¢u
) ."}
Ġt e
áº¡ nh
Å ©
Ġn Æ¡i
uá»ĳ i
Ãº t
Ġs c
er y
áº£ nh
Ġg ot
w e
Ġm á»įi
Ġto Ãłn
am p
Ġ 9
el y
Ãª u
ot h
Ġm Ã¡y
at es
ĠA nh
Ġn Äĥng
C Ã³
á»ĩ nh
Ġm áº·t
Ġb á»ĳ
Ġs er
Ġb Ãł
Ġh ow
ĠH o
Ġne ed
áº¯ ng
Ġ el
Ġn áº¿u
in t
áº£ y
Ġc ao
Ġs áº£n
.. ."}
o c
Ã¡ m
ĠThe y
Ġa fter
ĠÄĳá»ķ i
ĠphÃŃ a
Ġv áº«n
ĠÄĳ Æ°á»Ŀng
uy á»ģn
ent s
e v
Ġd iá»ħn
if e
i ed
Ġwh ere
Ġa i
Ġb áº£o
on s
or s
Ġt áº¥t
o od
Ã¡ u
Ġtr á»ĭ
Ġlo áº¡i
Ġth ay
Ġtá»ĳ t
ur n
Ġc all
Ġthe n
Ġl iÃªn
an k
Ġqu Ã¡
Ã Ķng
á» Ń
ab le
Ġl á»±c
Ġne w
ĠÄĳá»Ļ i
K hÃ´ng
Ġun der
p h
ation al
Ġ am
ĠB r
áº ³
á» ī
Æ°á» Ľi
it ed
em ber
Ġt Ã¢m
Ġd es
Ġyear s
Ġthá» ©c
Ġchá» ©c
Ġth ese
ĠL e
ĠN o
Ġgo ing
Ġth áºŃt
Ġc áº§u
ĠTh at
Ġt uy
Ġcom m
á»ĵ m
al k
á» ©ng
.. .","
ĠÄĳ iá»ĥm
Ġchuy á»ĥn
1 9
Ġtr ung
Ãª m
an c
Ġquy á»ģn
Ġt Ã¡c
Ġever y
Ġth ÃŃch
C Ã´
) .","
Ġ1 2
Ġh Ã³a
Ġm ost
á»į ng
Ġch Æ°a
Ġf e
i o
Ġ X
ĠWh at
ĠP r
Ġg á»ĵm
áº· p
Ã¬ n
l es
Ġth r
Ġb áº¥t
á» ¹
Ì ī
Ġlo ok
Ġcáº£ m
ur ing
Ġthá» ĭ
Ãł u
Ġtr á»įng
Ã£ y
Ġ19 8
Ġchá» ©
Ġs om
ĠQ uá»ĳc
ĠN ew
v el
Ġm ay
Ãº p
ĠÄĳ Æ°a
w n
á» Ľ
l ud
Ġ- -
i ous
a il
a z
Ġtr anh
Ġth iáº¿t
Ġs Ä©
ĠÄĳ áº¥y
ĠI s
Ġc uá»ĳi
Ġt y
Ġb iá»ĩt
Ġcá»© u
á» Ŀi
Ġc áº¥p
Æ°á»Ľ ng
Ġn ay
áº³ ng
ĠA n
Ġ áº£nh
el f
Ġs y
Ġph á»ĳ
ĳ ng
áº© n
ct ion
Ġgi áº£
u g
Ġch áº¿t
Ã© p
Ġs up
Ġ19 4
Ġ Z
Ġb a
v ed
Ġs ay
Ġthá» §
f ore
áº¡ m
Ġh el
Ġb ay
Ġs ec
Ġt áºŃp
Ġb á»ı
out h
Ġvá» ±c
Ġag ain
in a
Ġc r
Ġf l
as ed
Ġw ay
c ed
o h
ĠnghÄ© a
ough t
Ġp re
Ġch Æ¡i
Ġy Ãªu
ĠÄ ĥ
áº© m
Ġgiá»¯ a
Ġph im
ĠA s
in ce
Ã ¨
áº§ m
Ġv ery
Ġgi Ã¡o
at her
Ġwor ld
re at
b le
ĠN g
Ġc Ã¢u
Ġb Ã¡o
Ġma ke
Ġkho áº£ng
on t
ol og
Ġch u
f orm
Ġbec ause
il y
Ġcá» Ń
Ġph Ã¢n
Ġr em
Ġtr iá»ĥn
ĠÄĥ n
o ok
u ally
ĠTh ere
áº¡ ch
g an
et t
Ġb Ãªn
Ġ1 5
a ve
al s
Ġngh iá»ĩp
áº± m
ĠÄĳá»ģ u
Ġ ."}
Ġt Ã¬nh
Ġngo Ãłi
Ġho áº¡t
Ġn am
Ġl Ãºc
Ġus ed
Ġg en
Ġh áº¿t
Ġw r
Ġt ay
N áº¿u
á»« ng
ĠÄĳá»ĭ a
Ġt iá»ģn
Ġcon s
g r
w ard
Ġk áº¿
Ġinc lud
Ġ19 7
Ã² a
á»ĵ n
Ġta ke
Ġpl ay
Ġgi Ãºp
Ġg áº§n
Ġh iá»ĩu
ub l
uá»ĳ ng
á»ĩ t
Ġph Ã²ng
ĠH ow
eth ing
i k
Ġ1 1
Ġh áº¯n
ow er
i x
Ġtá» ¥
Ġt Æ°Æ¡ng
Ġin ter
Ġs Ã¡ng
Ġl a
Ġtá»« ng
Ġsa id
Ġthu áºŃt
ĠO n
ic t
Ġv áº¥n
ĠÄĳ Ã¡nh
ĠI f
ou p
Ġd ec
Ġb iáº¿n
Ġch áº¥t
w ay
Ġph Ã¡p
Ġph Æ°Æ¡ng
Ġth am
or k
Ġk inh
Ġf ound
Ġd if
Ġnh Ã¬n
Ġgo od
Ġth Ã´i
Ġthr ough
ĠÄĳ áº¥t
Ġtr uyá»ģn
Ġgiá» ĳng
Ġcá» ĳ
on na
uy á»ĩn
Ġx em
Ġm áº¥t
Ġre ally
op e
ĠW ell
Ġká» ³
Æ° u
Ġt ell
Ã³ m
Ġnh á»ı
Ġs Ã¡t
o ol
Ġg áº·p
b e
Ġt Ãłu
Ġd own
Ġc ount
c es
we en
Ġkh á»ıi
Ġman y
Ã© t
Ġph á»¥
Ġin d
ĠÄĳ áº·c
Ġth uá»Ļc
Ġl ong
Ġho Ãłn
er t
Ġgi Ã¡
ĠÄĳ iá»ĩn
Ġc ar
ĠM á»¹
id ent
S au
od y
th ing
Ġtr ÃŃ
Ġngh e
Ġl iá»ĩu
P h
Ġd Æ°á»Ľi
Ġ â
Ġsom ething
Ġ1 7
Ġpro du
u a
Ġa cc
ĠS e
.\" ","
Ġp ol
Ġsu ch
Ġ19 6
ĠTr ung
Ġsp ec
Ġw ell
á» ©
Ġn um
Ġin v
is e
Ġc ent
as h
á» Ĺ
Ã µ
c i
ĠÄĳ Æ¡n
Ġfor m
Ġsh ould
Ġr o
áº¯ m
Ġth o
Ġd Ã¹ng
an n
ĠÄĳ áº¥u
Ġm áº¹
Ġbe fore
Ġd á»ĭch
i er
if ic
Ġp o
Ġtá» Ń
Ġre g
er m
Ġlá» Ŀi
ĠN am
Ġha pp
Ġqu áº£
Ġs Ã¡ch
at ing
Ġv Äĥn
Ġt Æ°á»Łng
itt le
Ġm ade
ĠC om
Ġh igh
N Äĥm
Ġd áº«n
y s
at t
ar s
Ġbet ween
Ġg onna
Ġchá» ĭ
Ġx Ã¡c
ĠvÃł i
st em
ĠHo a
Ġchiáº¿ c
Ġm ang
Ġl ife
ĠÄĳ áº·t
Ġ end
\" ,
Ġb Ã¬nh
ĠÄĳ áº¡o
Ġmu ch
Ġb l
Ġe ven
ÄĲ Ã¢y
Ġd i
Ġt Æ°
f ul
ic s
Ġs m
Ġs ur
Ġth ree
Ġv Ã¹ng
Ġb á»ĩnh
Ġst art
Ġb el
it ies
or th
ĠD o
Ġnh áº¡c
Ġa c
u al
u c
ar ly
Ġd Ã¹
Ġth Æ°Æ¡ng
Ġt Äĥng
Ġf am
á» ³
a ir
Ã¹ a
Ġch áº¿
Nh á»¯ng
Ġb an
mer ic
Ġ á»©ng
Ġb Ãłi
e b
j ect
e ver
hi p
Ġm Ã´
á» Ŀ
áº¡ y
ver n
Ġng ay
Ġv Ã´
o ve
Ġe v
ar g
Ġsu b
Ġquy áº¿t
Ġt Ãłi
e x
Ġx e
ÃŃ t
Ġt iÃªu
áº¯ p
' d
e g
e k
Ġ19 5
r al
Ã³ c
Ġph áº©m
Ġ1 6
Ġbe ing
ÄĲ Ã³
Ġne ver
Ġv iáº¿t
Ġtr áº»
im es
Ġlo Ãłi
ĠS p
in s
Ġl Ã£
ar l
Ġ âĢĵ
Ġk ill
Ġl ittle
Ġdo es
V Ãło
au gh
ĠK h
ang e
r ed
Ġt alk
ow s
E m
er n
Ġh á»ıi
Ġr et
Ġx áº£y
ĠA meric
v ing
Ġkh ÃŃ
ĠF or
Ġf in
ĠK á»³
Ġh iá»ĥu
Ġk á»ĥ
Ġus e
Ġs ame
Ġd ay
e y
Ġm inh
Ġg Ã¡i
Ġl áº¥y
Ġdif fer
Ġst ud
Ġchá» ©ng
uy áº¿t
Ġt iáº¿n
Ġf ind
c o
Ġc a
£ i
Ġnh iá»ĩm
d ay
Ġcom e
ter s
Ġtá»¥ c
ĠM ay
ĠÄĳ Ãºng
H á»į
Ġ '
Ġo wn
2 0
Ġn á»ķi
Ġg iáº¿t
Ġc ol
Ġm in
Ġtu á»ķi
Ġw on
Ġb Ã¡n
Ġar ound
Ġ Ã¢m
Ġhel p
iver s
Ġm on
Ġcáº£ nh
Ġph Ã©p
Ġnh Ã³m
an y
Ġtr ans
ĠA ll
Ġng uyÃªn
Ġth ose
ĠI nd
it s
Ġph á»¥c
Ġlo c
al e
Ġv i
ĠA t
Ġká» ·
ĠÄĳá» Ŀi
ĠÄĳ áº£o
Ġph á»§
Ġp op
ĠG r
ers on
Ġsy stem
K hi
Ġn áº±m
« a
Ġst ill
á»ĵ ng
i el
Ġat t
Ġl et
Ġn ame
Ġknow n
ĠT Ã´i
Ġ ent
Ġth ing
Ġth Ã¢n
ĠUn ited
ut ion
Ġng u
v es
Ġtr Ã²
ul l
Ġd uy
ow ing
Ġm áº¡nh
ib le
Ġo b
ĠÄĳ Ã¡ng
Ġvá» ĩ
o ot
Ġd Ãłi
Ì ĥ
Ġl ast
Th e
ĠC an
b um
is ion
ad y
m y
Ġd uring
V áºŃy
Ġch Ãº
ĠN ow
Ġcall ed
Ġm á»Ł
Ġde f
ĠI I
ous e
Ġngh á»ĩ
Ġd anh
Ġtr Æ°á»Łng
i um
un d
Ġm od
ch ool
ish ed
Ġpr ot
us s
Ġt ÃŃch
p ect
áº¡ p
in es
et her
ĠÄĳ Ã¬nh
Ġth Ãªm
om an
Ġdid n
Ġt Æ°á»£ng
Ġlu Ã´n
e e
Ġc ap
Ġtr ang
\" ."}
Ġb Ã©
Ġtr ai
Ġto o
Ġst r
Ġme an
Ġth áº§n
ap an
ĠT Ã¢y
ĠQ u
ou n
ul ar
ur y
áº¥ m
Ġt inh
Ġngh iÃªn
y l
at ive
ĠG i
Ġsec ond
Ġch i
Ġmá» Ĺi
Ġ1 4
ĠC on
vel op
Ã´ m
Ġf il
ill ion
t ing
iáº¿ m
Ġch ÃŃ
\" .","
Ġ ÃŃt
Ġde velop
Ġ19 3
Ġd ist
an e
Ġth ings
u k
á»ķ ng
r on
ese nt
t on
Ġ1 3
ur es
et s
Ã£ i
Ġgi ao
Ġnh áºŃp
ĠM y
Ġb iá»ĥn
a e
Ġng á»¯
Ġg Ã¢y
Ġv iá»ĩn
Ġh á»Ļ
Ġb Ã³ng
Ġpl ace
Ġtr áº£
ar ch
a ke
Ġc ung
Ġ Ãł
Ġc á»Ļng
in n
Ġth i
Ġch á»įn
Ġtr a
Ġcá» ķ
Ġnum ber
ĠÄĲ áº¡i
Ġw ar
ep t
Ġngh iá»ĩm
s elf
Ġdá»± ng
Ġa ir
ubl ic
Ġ3 0
t il
Ġtr iá»ĩu
á»± a
Ġch Æ°Æ¡ng
Ġs á»Ł
áº§ y
ĠE m
Ġre al
er al
ĠJ apan
as on
":" \"
Ġh áº¡n
á» ħ
Ġtr áºŃn
Ġr á»Ļng
Ġf oll
Ġy áº¿u
Ġx uá»ĳng
is m
Ġl ater
Ġ âĢ
p en
Ġh and
en e
Ġm á»¥c
Ġs ign
Ġin s
ri b
Ġ Ã¡n
o x
į ng
Ġx Ã¢y
Ġgo vern
Æ°Æ¡ i
Ġc re
Ġd iá»ĩn
Ġh Æ°á»Ľng
ĠB e
ĠNh áºŃt
er g
Ġb iá»ĥu
e ah
C on
Ġwh ile
Ġph Ã¡
y ing
ĠÄĳ Ã´
Ġch Ã¢u
Ġg u
el s
Ġl á»ĭch
Ġth ought
or ld
ĠÄĳÃ³ ng
Ġt á»ĳi
iÃª ng
x t
Ġas k
Ġd r
Ġb oth
Ġh um
Ġg uy
Ġtá»ķ ng
.\" "}
Ġun til
p os
Ġb re
ĠJ oh
Ġex t
c y
Ġl áº½
iz ed
Ġkh áº£
C áºŃu
Ġch ild
ĠÄĲ á»©c
Ġc ity
Ġal bum
Ġrel e
ar r
it al
ist s
Ġdiffer ent
Ġlu áºŃt
ĠC l
un e
Ġl áº¡c
Ġth uyáº¿t
Ġs ing
Ġm Ã¹a
Ġin st
Ġta k
Ġm et
Ġph áº£n
Ġch a
ce pt
Ãł m
p e
ĠÄĳo Ãłn
ĠO r
T uy
áº« u
Ġwh y
o ber
Ġngu á»ĵn
ī nh
er ed
Ġs im
Ġin f
Ġch áº¯c
ĠWh en
Ġbec ame
T a
« ng
er man
Ġkh Ã³
Ġtr á»£
ĠÄĳá» §
Ġf our
Ġh Ã¡t
er r
Ġo ld
ĠPh Ã¡p
Ġh y
Ġsh ow
Ġbel ie
Ġ put
iv ed
c on
Ġgr oup
ĠÄĳ Ã´ng
Ġle ad
Ġad d
Ġth Æ°
ot t
is ter
Ġar t
Ġfam ily
Ġs ong
Ġtá» ĵ
Ġl Ã¢u
am es
i end
Ġhe ad
Ġv ai
il ity
ra ct
i ent
in ed
ĠW orld
áº¹ p
Ġc are
w ays
Ġh Æ°á»Łng
Ġp erson
em ent
Ġfr iend
ĠC ol
ĠA m
Ġm us
Ġv áºŃn
augh ter
e ep
ĠÄĳá»Ļ c
Ġk áº»
Ġ áº
Ġgiáº£ m
ire ct
Ġm áº¡ng
ĠP ro
Ġfil m
Ġg ame
in c
ĠA d
r en
Ġ 0
ak ing
iáº¿ ng
Ġtr e
Ġm ed
Ġtu áº§n
Ġgi ve
Ġd áº¡ng
Ġe ff
V Ã¬
ĠE ur
Ġg reat
k ay
Ġch á»ĳng
ir d
Ng Æ°á»Ŀi
Ġel ect
Ġnh á»Ľ
Ġpro v
Ġh ome
en n
a x
Ġm ain
ut h
ĠL iÃªn
Ġm ust
Ġth Ãºc
Ġ2 5
ĠB áº¯c
am s
ĠA fter
Ġk iá»ĩn
Ġv Å©
ĠÄĳ a
Ġs Æ°
Ġhapp en
one y
Ġk iáº¿n
ar a
Ġp ower
Ġw ater
ĠG u
Ã£ o
Ġcá»Ń a
Ġm áº¯t
ĠA f
Ġsá» ©c
Ġch áº³ng
ag ue
ĠJoh n
ch n
Ġan other
ic ally
Ä ĳ
Ġs l
ar m
Ġgovern ment
Ġk ind
Ġx Ã£
Ġe ach
Ġch ung
Ġ est
Ġr un
u i
Ġcá» ¥
Ġtá» Ľ
Ġr Ãµ
Ġlá» Ĺi
Ġs ince
ĠS outh
ur al
ĠL an
Ġim port
ar th
Ġkho a
ain ed
Ġle ft
Ġk Ã½
ent ly
ĠlÃ£ nh
Ġc Æ°
Ġk iá»ĥm
ain s
\ \
Ġth áº¯ng
Ġm ov
Ġagain st
ĠO h
á»į c
om en
áº· ng
Ġng Ã´i
ÄĲ iá»ģu
am a
Ġo per
ap h
Ġch Ã¡u
ar i
iv es
Ġ201 1
ĠÄĳ Ã¡
Ġx a
ĠS c
in al
ĠP ol
Ġkh iáº¿n
e ad
Ġh Ã²a
Ġl ot
á» Ĺi
Ġc our
Ġcont r
s h
Ġsm all
ĠG o
a it
áºŃ m
t y
ant s
Ġg hi
le x
ĠL a
Ġchá» Ĺ
Ġcom pl
Ġtuy á»ĩt
áº¿ p
olog y
áº£ m
t en
á»ĳ n
ĠcÃ¡ o
iel d
Ġ201 0
iz e
Ġm il
Ġr iÃªng
i ally
Ġim p
Ġh Ã£y
ĠY ork
Ġf ather
Ġc Ã¢y
á»§ ng
Ġl Æ°u
1 0
iÃª m
i pp
Ġb us
Ġ201 5
ĠÃ Ĥ
Ġs chool
ĠU S
Ġ201 4
Ġm Ãły
le y
ar ge
iáº¿ u
au l
Ġlo ve
or r
ivers ity
ĠÄĳo áº¡n
u h
i ke
Ġm áº·c
Ġoff ic
Ãº i
Ġth uá»ĳc
Ġl á»ĩ
Ġ201 2
c ent
Ġdes ign
Å į
Ġ ...
Ġ201 3
1 8
ĠJ u
in ess
Ġto ok
Ġv Ã²ng
ul ation
ĠmÃł u
Ġchá»ĭ u
Ġpo int
ĠB a
at ure
ĠE ng
ĠWh y
ĠW ar
Ġdo ing
Ġf act
Ġo pen
Ġ1 00
ĠG erman
Ġch ia
ĠSt ates
l ed
Ġm illion
Ġthá» Ń
at s
ĠS y
ĠÄĳ Ãłn
at a
ot e
Ġqu ay
Ġch Ãºt
om b
Ġho Ãłng
Ġc ur
Ġchu áº©n
," }
u ch
Ġpart ic
ĠY eah
Ġmá» ©c
ĠÄĳá» ©
Ġfe el
ĠD on
ide o
ĠP l
Ġret urn
Ġ200 8
Ġa way
an a
Ġinclud ing
r l
Ġmu a
ie w
Ġb ang
ĠR e
ĠÄĳ Ã´i
ble m
Ġp ar
am b
Ġcon f
Ġkh Ã¡ch
Ġ ide
ĠM an
Ġlá» £i
ut e
Ġt iáº¿t
Ġ ed
á»¯ u
es ident
Ġk m
ess ion
Ġbet ter
Ġn ight
K h
Ġcount ry
Ġal ways
Ġact ually
Ġt urn
Ġst ate
Ġvá» įng
ĠC al
Ġch á»¯
Ġqu áº£n
Ġch áº¡y
t s
Æ°á»£ t
Ġtá»ĵ n
ĠÃĤ u
Ġ200 7
ĠG e
ĠB áº£n
Ġbu ild
Ġor ig
Ġ200 9
á»§ y
Ġg h
Ġqu anh
ĠA b
Ġcont in
Ġm en
Ġc ame
j or
ad a
Ġh Ã´n
is ed
Ġb á»įn
c ial
ag es
Ġ Æ¡n
Ġgi rl
Ġr est
Ġh ist
ĠCom m
o le
Ġh á»¯u
Ġk iáº¿m
Ġto ld
ĠK ing
Ġo cc
Ġx in
Ġk Ã©
ver al
Ġany thing
Ġpr om
G iá»
Ġb ig
er v
Ã³ n
ĠEur ope
," ,"
Ġf ew
Ġb est
ĠC ar
Ġt á»Ļi
Ġne xt
Ġ200 6
Ġt iá»ĥu
Ġm ight
Ġk eep
Ġm em
Ġd irect
Ġ201 6
ĠAmeric an
Ġl and
id ed
ĠM r
tern ational
s on
ri es
Ġth anh
Ġpro blem
Ġs Ã¢n
B Ãł
ĠÄĳá» ©ng
Ġl ang
Ġlu áºŃn
ĠM al
b ers
Ġs ol
ru ct
Ġk ÃŃch
Ġd Ãłnh
ri ed
is on
es p
Ġvá» «a
ug ust
ĠÄĳá»© a
w h
ar ed
v ent
Ġd u
ĠE l
ir ed
r ist
st and
Ä© nh
ĠÄĳ áº¹p
ĠO ne
ĠJ an
Ġimport ant
m ed
Ġde ath
g g
Ġmon th
ĠP ar
á» Ľi
Ġh Ã´m
Ġh áºŃu
Ġc áºŃp
r ess
ĠT o
2 4
Ġare a
t e
Ġor gan
ate ly
Ġrec ord
p or
l or
us h
i am
ic a
Ġg á»ĳc
Ġd et
Ġp oss
Ġcon st
Ġb áº¯c
Ġdá»¥ c
Ġ Ã¡p
Ġm ark
Ġf un
Ġp os
i us
Ġapp ear
- -
Ġe arly
Ġ ,
n ess
Ãº a
ĠA ugust
Ġb á»©c
ĠC Ã´ng
Ġex per
ĠJ ust
Ġk ia
Ġt áº£
Ġst and
ĠBr it
ĠÄĳ áº¡t
Ġl áº¯m
Ġngo áº¡i
Ġd á»ħ
at ter
Ġr ed
al th
ro p
on y
uá»ĳ t
Ġv áº»
c ess
ĠM in
Ġv ideo
Ġhum an
Ġs ang
Ġres ult
Ġtr á»±c
Ġde p
Ġj o
Ġwe ek
Ġex pl
Ġd ays
o on
ap p
Ġs Ã´ng
Ġcá» ±c
Ġto g
ment s
Ġwith out
Ġc le
Ġv is
Ġtog ether
u es
Ġ2 4
ĠE n
Ã¢ ng
t a
en se
ic o
Ġm iss
ĠA ir
Ġho áº¡ch
ab l
á» ŀ
c l
Ġsup port
Ġnh anh
7 8
ĠÄĲ Ã´ng
Ġph áº¡m
5 0
al f
on es
ĠN orth
Ġv ui
b all
ĠÄĳ Ãªm
e f
Ġb áº§u
Ġor der
en ch
Ġh á»Ĺ
Ġpro gr
T áº¡i
ne y
Ġdo anh
Ġst op
Ġth iÃªn
Ġse veral
l er
Ġ2 1
Ġh áº¡ng
ver y
cc ess
i ence
Ġs uy
Ġd el
Ġe qu
Ġkh ai
ĠO ct
ain ing
Ġngh á»ĭ
et y
H Ã£y
Ġwor d
Ġpol it
Ġco i
Ġx á»Ń
Ġbe gan
Ġm ove
Ġm oney
Ġtr á»Ŀi
Ġ5 0
ĠS an
ĠP hi
Ġng Ã´n
Ġtr Ã¡i
Ġta o
Ġn á»Ļi
ic es
Ġng Ãłi
Ġ Æ°á»Ľc
Ġb Ã¢y
Ġg l
ÃŃ n
ĠD ec
Ġb Ãłn
Ġv ua
Ġto Ã¡n
m a
Ġb áº¯n
Ġwant ed
ur ed
ra z
Ġn á»ģn
Æ°á» ¡
Ġc u
Ġbu á»ķi
Ġph ong
late d
r et
Ġrele ased
Ġh áº§u
ĠH er
Ġm ar
Ġl arg
u ary
Ġan n
Ġcomm un
ĠE d
Ng Ãły
Ġcons id
le ase
ĠPh il
Ġte chn
ver s
ĠTh Ã¡i
b y
Ġsá» £
Ġw ent
Ġl ist
Ġte am
ĠH ar
Ġchiáº¿ m
Ġre f
Ġh uy
Ġser v
Ġt á»Ļc
Ġto day
i or
ĠAf ric
y le
Ġl ive
Ġm áº¥y
Ġká» ¹
Ġt erm
Ġle g
al es
ĠB ar
Ġsp e
con om
ur g
áº µ
Ġth Ãº
Ġm á»ĳi
Ġma jor
Ġs et
Ġ201 7
es c
le ct
Ġpl an
Ġph á»ķ
Ġ19 2
Ġh ard
id s
ab ly
i od
op h
Ġcompl et
t r
i ans
Ġm áº«u
ĠA ust
b ody
Ġchuy Ãªn
ĠR uss
Ġt Ã¹
Ġl aw
Ġch Ã¢n
t ed
Ġb ook
Ch á»ī
Ġl Ã²ng
Ġspec ies
ĠP er
h ing
Ġof ten
n er
ect ion
Ġal ong
og r
âĢ Ŀ
Ġd em
ĠTh ese
ak es
at or
á»Ń a
Ġnh iá»ĩt
Ġgen er
n ing
k y
à ¸
as ter
k a
Ġp at
ĠB l
as es
Ġcent ury
Ġr á»Ŀi
Ġf ive
Ġs áº¯c
ra ft
at ic
Ġinc re
Ġdá»± a
Ġng Æ°Æ¡i
ĠM a
re en
Ġsu re
ĠB y
ĠK hÃ´ng
Ġb áº¡i
Ġch ang
áºµ n
it er
Ġper form
ĠJ une
att le
ĠOct ober
Ġch áº¥p
ĠL et
Ġe ng
ĠM us
Ġlang u
ĠMar ch
Ġl ight
ĠB ec
Ġtá» īnh
á»ĳ t
ĠY our
Ġd one
1 5
Ġto p
Ġp ri
ĠE x
Ġser ies
Ġth áºŃp
Ġtho áº¡i
ĠW ill
ĠJu ly
Ġbe h
The o
Ġgi Ãłnh
Ġrec e
ĠS ept
ĠUn iversity
ĠNh a
pr il
Ġb o
Ġph iÃªn
? \"
Ġh ouse
ĠL u
pl ay
Ġdoes n
Ġevery thing
t o
Ġn iÃªn
Ġch ar
B áº¡n
i et
id es
Ġs on
Ġt imes
re w
Ġâ Ļ
ĠHow ever
Q u
Ġt Ã¢y
qu e
Ġapp ro
Ġres p
Ġunder stand
¤ n
ĠS ome
i en
Ġx áº¿p
Ġbec ome
Ġbelie ve
S á»±
ĠG od
T á»«
Ġstart ed
Ġth áº¥t
ĠJan uary
Ġsing le
Ġre port
Ġr ad
Ġbe g
Ġm other
Ġ2 2
Ġdes c
ĠcÃ¡ nh
Ġt uyÃªn
Ġnot hing
Ġp ublic
iv ing
p ar
Ġqu est
ĠA pril
Ġsu ccess
2 00
ĠSept ember
ĠÃ ģ
Ġme et
Ġeff ect
Ġbus iness
Ġh u
ĠM e
Ġs uá»ĳt
Ġb inh
Ġl á»ĩnh
it ary
ĠH y
Ġn Ãºi
Ġyou ng
ĠS er
ĠÄĳ áº§y
iv ely
Ġch ange
Ġ200 5
ect ed
z e
Ġv al
Ġinter est
ĠC ent
Ġl arge
Ġwith in
ĠH is
ĠNg a
Ġad v
ĠBec ause
Ġh iá»ĥm
Ġvá» £
ct or
m ber
ĠB an
âĢ Ļ
end ed
s ide
in o
Ġe as
Ġm iá»ģn
Ġh áº¡i
Ġâ Ĩ
ac ed
Ġpro f
t ain
Ġse en
Ġb uá»Ļc
Ġ $
k i
ĠLe ague
ĠP e
r ia
Ġh our
Ġen ough
Ġc áº¡nh
Ġpop ulation
id d
Ġpro cess
u ed
Ġb Ã¡c
re m
Ġd á»¯
Ġd est
Ä© a
ĠFr ench
Ġph Ãºt
1 2
th ough
ĠG en
Ġth áº¥p
Ġmus ic
ĠkÃ© o
Ġ2 3
Ġ {
Ġl ess
Ġ &
Ġchild ren
ward s
Ġ á»ķ
Ġl á»Ļ
ric t
y n
iz ation
Ġs áºµn
Ġd Ã²ng
S ao
Ġc Ãłng
un ch
Ġcomp any
Ġcomm on
Ġre qu
Ġtuy áº¿n
Ġc Äĥn
ow ed
ĠJapan ese
Ġcontr ol
Ġs it
Ġso Ã¡t
Ġp ur
Ġst ay
c om
Ġl ear
Ġf ight
Ġn orth
1 1
Ġtr Ãºc
ã ĥ
amp le
r es
Ġgi Ã¡c
Ġb Äĥng
Ġd áº¥u
a ut
Ġtr á»¥
ĠGe or
a f
et er
Ġh Æ¡i
Ġb oy
ap e
Ġw omen
ac ter
Ġex p
ĠC ity
il t
Ġto wn
ÄĲ á»ĥ
Ġngh i
Ġst re
Ġs ide
Ġáº ¤n
Ġb Ãło
Ġg áº¯ng
ĠN ational
Ġkh Ã¡
g o
Ġh á»ĵi
Ġchuy áº¿n
Ġt Ã²a
":" (
Ġh áº¡t
e in
Ġs áº¯p
ĠCh rist
Ġs ix
áº© u
1 7
ĠDec ember
ĠK ore
Ġc áº£i
Ġt em
ÄĲ Æ°á»£c
u el
Ġst ory
Ġne ar
Ġa v
ĠCh ina
Ġb ody
Ġcon c
er a
Ġph i
ou l
Ġs outh
Ġe conom
ot s
Ġs ai
Ġb Æ°á»Ľc
ĠA ng
Ġo pp
b r
or ies
Ġb ro
Ġf oot
Ġle ave
od e
Ġk Ã¬
ĠÄĳo Ã¡n
Ġs aw
re ady
ĠV Ãł
Ġbá»ĳ n
Ġc uá»ĳn
Ġt est
ĠNo ve
Ġc ell
Ġm om
th e
ĠS w
ĠNove mber
ĠâĢ ľ
land s
Ġb iÃªn
Ġsh ip
Ġs w
ese arch
k s
Ġme ans
Ġre ach
ĠTh en
Ġwe b
Ġk iá»ĥu
m in
Ġ4 0
Ġd iv
á»Ń i
Ġin form
Ġt áº¡p
al ity
Ġnh Ã©
Ġtá» ©c
ĠÄĳ áº¿
ĠW ith
Ġc áº¥u
Ġper iod
Ġlá» ħ
Ġtr á»«
Ġm Ã¡u
Ġle vel
Ġwho le
ĠC r
it ions
ĠN ot
l ess
w ork
Ġ2 6
Ġtr áº¡ng
Ġm ag
Ġm áºŃt
Ġfoll owing
Ġng uy
Ġtr ying
or ry
ĠB á»Ļ
Ġal ready
Ġha ving
Ġb orn
Ġab le
Ġon ce
Ġv ers
Ġf ar
T áº¥t
Ġ2 8
ith er
o Ãłi
Ġ2 7
Ġqu áº§n
a im
es tern
l in
Ġc ase
ĠL ook
ĠHe y
g y
Ġpr esent
Ġest abl
Ġide a
Ġx Ã©t
Ġm Ã£
ert ain
Ġnam ed
Ġl uyá»ĩn
Ġkill ed
N gh
Ġth Ã¡i
ĠP al
Ġ z
u ff
Ġ200 4
ent ion
pos ed
Ġag o
Ġcl ub
Ġ Â
Ġlook ing
pr esent
if ied
Ġc ult
Ġm Ã´i
Ġx ung
Ġsh ort
Ġh áº¡
g en
Ġro om
ĠR ep
Ġan t
1 3
o e
Ġh alf
Ġsome one
Ġk Ãª
ord ing
Ġus ing
ogr aph
Ġs Ãºng
Ġl ai
Ġch áº¯n
om in
Ġl ate
, \"
1 6
am m
ĠT e
ĠD e
Ġhe ar
Ġtr ao
Ġnh iá»ħ
Ġe y
Ġn á»ĳi
um p
Ġn áº¡n
Ġb ased
it ing
ĠÄĳá»ĭ ch
Ľ m
Ġh á»§y
Ġj ob
y m
ĠBrit ish
1 4
v ious
Ġv ar
m ost
áº© y
ro du
Ġse em
ĠÄĳá» «ng
Ġcour se
pr ess
Ġn ational
Ġm aking
ĠÄĲ á»Ļ
Ġel se
o int
Ġwork ing
Ġb ad
ĠÄĳ á»ĳc
Ġp ain
l u
Ġ200 0
Ġde ad
Ġb i
Ġtá» ·
Ġng á»§
Ġex ample
Ġa ff
eb ru
y a
Ġr Ãłng
ĠâĨ ĳ
Ġc or
Ġreg ion
ebru ary
Ġá»ķ n
I I
Ġs k
b o
Ġan im
Ġthá» ķ
ĠTh áº¿
G i
Ġw oman
op s
and er
Ġs ent
l ine
Ġchá»© a
ĠÄĳ au
Ġthu áºŃn
Ġt Ã¡i
Ġd a
u Ã´i
ĠIt al
iá»ģ m
Ġcount ries
Ġt el
Ġn iá»ĩm
Ġb as
Ġre ad
Ġtr ad
Ġt it
Ġ19 0
Ġh á»ĵ
Ġph Ã³ng
Ġf re
Ġ Ã¡nh
Ġcom ing
Ġh old
l ish
e al
Ġc amp
d om
Ġng áº¯n
ir on
c le
l ing
Ġto t
ĠS ec
ĠF ebruary
Ġt Ã´n
Æ°á»¡ ng
Ġtr Ã¡ch
Ġtá» ĭ
Ġgi áº£n
ep h
Ġl ost
į c
p le
ĠÄĳ Ãłi
r an
Ġtá» ĩ
á»ı ng
ĠC o
Ġg á»Ńi
Ġse ason
ĠT á»ķng
N A
Ġb it
3 0
Ġb á»ķ
Ġs Ã¢u
L aughter
Ġt Æ°á»Ľng
Ġd ung
es ter
Ġc áºŃn
Ġh áº£
Ġv Æ°Æ¡ng
Ġlá» Ń
ol ution
ut es
ĠA re
Ġt im
Ġle ast
Ġ201 8
Ġloc al
ĠvÃł ng
ĠCan ada
Ġl ine
s c
ĠM ed
ĠHo Ãłng
Ġre present
Ġmonth s
o f
Ġt err
s el
Ġa ge
ĠM iss
ap s
ver ed
ĠH áº£i
Ġ200 1
Ġgi ai
Ġc Å©
Ġn on
a ur
Ġd ied
Ġsá» Ľm
Ġtr áº£i
ĠAust ral
Ġr u
Giá» Ŀ
Ġpro b
Ġd ue
b on
âĢ Ķ
Ġm i
Ġs old
Ġth Æ°á»Łng
et imes
Ġv ir
Ġm ind
Ġcl os
ĠA nt
H áº¯n
er ing
Ġw ait
Th áº¿
al d
ĠS ch
Ġbl ood
ĠD r
Ġs Ã³ng
Ġ uá»ĳng
ag ed
Ġmil itary
in ese
Ġ199 0
um b
ĠCh Ãºng
ĠÄĳá» įc
Ġguy s
Ġnhiá»ħ m
Ġcomp et
or ed
Ġqu Ã½
ard s
ond on
Ġx Ãºc
Ġbr other
Ġp ubl
Ġlá»Ń a
Ġgi ven
ĠCh Ãºa
og n
Ġf ood
Ġng Ãłnh
Ġhappen ed
Ġw ife
Ġt á»ĳc
Ġrem ember
Ġd áº¡y
et ic
ist an
Ġgi Ã¡m
Ġtr áº¥n
ĠEng lish
r ation
Ġ i
Ġcur r
ĠC á»Ļng
os p
Ġkh á»Łi
Ġp ay
Ġk o
ĠD uring
ĠA g
av y
V iá»ĩc
Ġng á»ĵi
o a
Ġhist ory
ĠÄĳ ÃŃch
ĠW est
ĠÄĳ á»Ļt
an o
Ġpro ject
a j
m en
Ġprodu ct
Ġre v
if orn
Ġbu ilt
iv al
Ġget ting
Ġdis co
n ed
Ġth ough
ĠC up
Ch o
Ġstr ong
s p
Ġng Äĥn
Ġch iá»ģu
Ġkh áº¯p
Ġtho Ã¡t
ĠN or
y r
Ġspec ial
ĠC or
ĠP ark
th ers
Ġd Æ°Æ¡ng
ĠD av
Ġact iv
Ġis s
ing ton
ud d
Ġde al
end ing
Ġho a
il le
Ġto ur
ĠS up
Ġhel d
Ã£ ng
re am
áº· n
ĠL ondon
Ġinclud e
ĠM ich
ÄĲ á»«ng
iforn ia
ru g
Ġ2 9
Ġev ent
Ġde b
V á»Ľi
Ġloc ated
Ġth ird
anc es
Ã¨ o
k h
Ġtr y
l o
ĠB el
C Ã¡i
Ġm áº¡i
ĠVi á»ĩt
ett y
ro y
Ġa uth
Ġn Ã´ng
il ar
Ġis n
Ġv ÃŃ
M áº·c
c er
inn ing
Ġd ri
b it
ĠM ex
ĠE arth
r oss
ĠAmeric a
Ġtre at
ĠA lex
á»¯ a
ri al
Ġng á»±a
Ġinv ol
Ġl á»±a
Ġv Æ°á»£t
Ġf ree
Ġg ave
erg y
ound s
Ġp ort
Ġb á»Ŀ
Ġsá»Ń a
ĠCal ifornia
Ġn áº·ng
Ġk ing
T á»Ľ
Ġb áº£ng
ĠPr esident
ther n
ĠO kay
Ġfriend s
Ġthá» Ŀ
Ġtr Ã¬
ac es
Ġam ong
ĠE very
L Ãłm
Ġs Ãłng
r os
Ġt áº¥n
Ġm ong
ra w
Ġdis c
Ġinv est
Ġhe art
Ġlangu age
Ġkh áº©u
Ġb ar
Ġl á»¥c
iss ion
Ġc aus
Ġc Æ°á»Ŀi
g er
Ġchá» Ŀ
Ġf ace
Ġvá» Ŀi
Ġph ys
Ġre pl
iáº¿ p
Ġbr ing
h e
Ġn á»Ńa
ep end
Ġr esearch
ĠCh iáº¿n
Ġch e
Ġinform ation
á»Ļ n
Ġv a
Ġk á»ĭch
B Ã¢y
Ġb ÃŃ
ĠM ad
Ġs Æ¡
Ġcom put
Ġ200 3
Ã³ t
D o
aw a
Ġkh á»§ng
Ġwr ong
Ġty p
ĠL at
ĠS am
Ġre fer
Ġde v
ĠPar is
b an
Ġn á»ķ
Ġth áºŃm
ĠÃ Ŀ
ĠP ort
d is
m p
Ġth iá»ĩn
wh ere
iv il
Ġn Ã£o
ut ure
d e
Ġg un
Ġnh áº±m
Ġ{ \\
ĠFr ance
Ġth áº±ng
Ġo kay
ng th
Ġf ig
ĠCh inese
Ġper cent
Ġ ÃŃch
an na
ĠX Ã´
Ġh on
Ġt w
ĠD id
Ġocc ur
ĠS al
Ġpolit ical
Ġse x
Ġrel ations
ur ch
Ġo thers
ĠÄĳ áº£m
Ġkh á»ı
ĠCh ar
b or
c raft
ĠM Ã£
Ġmem bers
ĠW ind
ition al
Ġcon n
2 5
re g
Ġv ill
Ġl ow
id ge
ĠR oman
Ġw alk
en a
Ġf ire
Ġcl ose
and s
Ã³ p
Ġy et
Ġwas n
Ġc áº¯t
Ġt ÃŃn
Ġhour s
Ġngh á»ī
Ġl ed
Ġcon d
Ġfor mer
Ġte ach
Ġhe ard
Ġw in
Ġ Ã¡o
Ġtr Ã´ng
Ġp ast
Ġso on
Ġth áº³ng
Ġtalk ing
n ight
pl oy
Ġchá» ĵ
Ġl im
Ġkh Äĥn
Ġc ost
Ġar r
it ive
Ġf ull
Ġann oun
Ġre ason
ĠN e
Ġso cial
Ġn at
ĠT om
Ġkn ew
Ġx uyÃªn
ĠAfric a
Ġal most
ĠR o
ur ther
Ġ18 9
ĠFr anc
ĠM on
Ġc am
is ing
Ġth Äĥm
ĠM c
Ġmark et
ĠH á»Ļi
Ġar ri
Ġl Ä©nh
ra el
Ġo x
ĠP art
p ly
Ġ )
Ġmay be
Ġth Æ¡
en cy
Ġdevelop ed
Ġnh u
out her
ĠY es
Ġlo áº¡t
ĠÄĳ Ä©a
Ġind ust
ĠS ov
Ġrece ived
u á»ķi
Ġhá»į a
Ġoffic ial
Ġac ross
Ġcom b
Ġ á»§ng
Ġprob ably
t iáº¿ng
Ġbuild ing
z a
ĠH ol
ĠFr ank
tern et
a el
ĠP aul
Ġplay ed
Ġth iáº¿u
Ġm atter
ĠM or
outher n
Ġ198 0
i ber
Ġph ot
Ġdevelop ment
Ġpr ess
w are
Ġyour self
i ec
ion al
Ġsa f
st yle
Ġbre ak
Ġex ist
ent al
ĠFr om
w er
Ġd aughter
ie f
Ġhe alth
Ġar m
Ġs orry
sel ves
Ġph á»ĳi
Ġkho áº£n
Ġquest ion
ur t
f or
Ġs um
ĠMay be
Ġm eth
Th áºŃt
en ces
Ġcre ated
Ġs ett
Ġfe at
Ġm akes
b orn
Ġe ither
Ġh áº£i
H ai
Ġph áºŃn
2 7
Ġ ident
ou d
Ġr ul
Ġf ield
ĠC ap
Ġex act
ĠÄĳá» £i
olog ical
id ence
6 0
ĠK im
in ation
Ġd ata
ĠNh Æ°ng
Ġrec ogn
C Ã²n
Ġf uture
Ġp lease
em y
Ġed uc
Ġconsid ered
Ġtá»ĭ ch
x im
ĠG l
ĠÄĳ áº©y
ĠA cc
g ar
ĠD Æ°Æ¡ng
ĠCh Ã¢u
h am
ĠS ing
Ġsay ing
Ġspe ak
Ġposs ible
Ġthá»§ y
Ġf all
st it
ab y
Ġkhá»ı e
Ġnh iÃªu
Ġr á»ĳi
Ġsim ilar
áº§ ng
Ġmov ed
Ġc ertain
ud e
Ġro le
Ġs qu
Ġchá»ĵ ng
Ġ Ã´
ĠIn ternational
oy al
em pt
Ġsu áº¥t
Ġl ab
and a
Ġr á»«ng
orn ing
Ġr Ãºt
ur a
Ġpart y
v Ãł
Ġ esc
Ġtot al
ã Ĥ
Ġchar acter
n ot
Ġl y
Ġl iving
ĠJ e
Ph áº£i
ĠE ast
i j
Ġorig inal
Ġtak en
es h
Ġáº ¢
Ġt áº§m
ĠÄĳ e
ĠÄĳ Ã¡m
ĠlÃł ng
Æ°á»Ŀ n
Ġl Ã¡
Ġx áº¥u
v iron
Ġtak ing
M á»įi
ĠB er
Ġf ail
ĠWh o
Ġt iá»ĩn
av ing
im a
Ġ200 2
Ġlarg est
m b
ut ed
Ġorig in
Ġngh iÃªm
Ġfor g
Ġask ed
Ġp ract
Ġmin utes
Ġserv ice
Ġs ays
ĠIs rael
iv id
itt en
Ġpop ular
Ã£ n
ĠV al
ĠF irst
Ġ ?"}
Ġprodu ction
Ġex pect
Ġent ire
ĠS om
Ġd á»ĭ
Ġ6 0
ĠQ ue
Ġn uÃ´i
al t
Ġdest roy
Ã³ i
Ġa p
re ad
ĠS un
Ġin ternational
Ġapp l
art ment
Ġv ol
Ġng á»Ŀ
Ġth ÃŃ
ĠGeor ge
Ġlo áº¡n
Ġtr Ã¹ng
ĠâĻ ª
Ġkh áº¯c
Ġv o
n y
er o
Ġdesc rib
ĠF l
y o
Ġl inh
Ġn or
Ġsur v
r ain
Ġwork ed
ĠInd ia
on ia
Ġk im
Ġare as
ĠM ont
Ġli k
Ġinf lu
Ġcap ital
ĠÄĳ Äĥng
Ġ ans
Ġauth or
Ġwould n
á» ·
Ġh ope
as c
o o
Ġs our
Ġm ember
Ġph á»©c
Ġpr im
7 9
ĠJ ames
Ġob ject
Ġl ÃŃnh
Ġd áº§n
Ġex c
Ġc al
Ġh it
Ġmod el
Ġst ruct
Ġfin al
Ġof fer
ĠM ag
Ġsp ace
Ġbe aut
Ġgr ow
Ġgi áº¥y
Ġfr ont
ru ction
raz il
ĠPhil ipp
ĠM art
ri pt
Ġus ually
Ġfoot ball
ĠMex ico
ig er
Ġout side
Ġint rodu
ĠSov iet
Ġth Æ°a
Ġen ergy
Ġm ate
Ġm Ã³n
it z
Ġm Æ¡
av el
Ġv iew
Ġth iá»ĩu
Ġc op
ĠT ok
an ch
Æ°á»£ u
ap er
Ġb Ã¡nh
Ġnh á»ī
ul f
Ġfor ces
Ġ18 8
:" }
Ġchiáº¿ u
ĠT ur
Ġob s
ĠS l
Ġmy self
idd le
Ġm ult
Ġtr áº¡i
Nh Æ°
Ġth Ã¹
Ġc ir
Ġnh á»Ŀ
Ġar ch
Ġin it
Ġthink ing
ic ation
ĠB en
Ġvers ion
Ġwork s
u f
Ġt áº§ng
Ġthá» ı
Ġl ives
a ff
d ro
ang er
om et
Ġpubl ished
Ng oÃłi
Ġsom etimes
Ġpro per
play style
ĠC Ã³
Ġm ai
Ġc ut
Ġmar ried
Ġm ess
Ġs Ã¡u
Ġh ost
Ġt áº£i
Ġl áº¡
us ed
p s
Ã Ŀ
ĠV Æ°Æ¡ng
Ġmá» Ŀi
:" ,"
f ic
est s
ĠC ome
Ġcl aim
Ġk ÃŃnh
Ġlá»Ľ p
ĠB razil
ĠTr Ã¡i
2 3
á»© a
Ġpos ition
Ġtr iá»ģu
ĠA i
Ġ uh
Ġins ide
Ġcom es
ĠL ou
est ed
ĠNh Ãł
Ġpr etty
Ã© m
ĠEurope an
Ġgen eral
Ġg Ã³p
ĠRep ublic
Ġ197 0
end s
ĠS ant
Ġtr Ã¡nh
ĠH Ãłn
Ġst ar
Ġcol le
Ġph Ãª
Ġchá»¯ a
Ġmod ern
Ġvar ious
Ġchá»§ ng
Ġtr ue
ou ble
Ġp ost
C Ã´ng
et work
Ġstud y
Ġestabl ished
áº¹ n
ĠH en
Ġ #
á»¥ y
b and
ĠÄĳá» ı
4 0
id a
ĠWind ows
ĠD iv
Ġr ob
dis playstyle
f ace
ĠN gh
Ã ¶
M áº¹
Ġreturn ed
h a
Ġthá» «a
Ġhim self
ank s
Å Ĥ
ĠR áºŃp
Ġtr Äĥm
ĠÃ ļ
Ġeng ine
Ġman ag
Ġis land
Tr Æ°á»Ľc
Ġtr á»ĳn
Ġw ind
au d
Ġm orning
Ġth áº£o
ent ial
Ġta i
ĠM il
Ġv ict
y ear
er c
Ġqu Ãªn
ĠD an
Ġtr áº¯ng
Ã ¼
Ġoff ice
Ġbr ought
Ġ =
ol a
ĠS m
ĠJ os
ĠR ed
Ġc Æ¡n
ir th
ul a
Ġprot ect
Ġind ivid
Ġr Æ°á»£u
Ġbec om
Ġ3 1
A S
ĠWh ere
Ġch Äĥm
ff ic
Ġe p
Ġtuy á»ĥn
amp ions
f ord
Ġser ved
i y
ĠI m
Ġd áº§u
ĠÄĳá» ¡
Ġf urther
b urg
g ent
Ġd áºŃy
Ġv ari
u gh
ain t
p ire
c um
Ġse par
viron ment
Ġhand s
Ġnh áºŃt
ur ity
ĠAustral ia
Ġr Æ¡i
Ġph a
Ġd Ã¢y
ĠT V
Ġf av
Ġkh Ã¡m
Ġmom ent
Ġpr esident
Ġb Ãły
le ep
el t
ĠA pp
Ġre p
Ġl Æ°á»£c
ĠR iver
Ġr is
Ġhow ever
Ġa ut
Ġr ather
im ate
Ġme as
c il
ĠR et
Ġany one
ĠÄĳ Ãło
ĠA ct
Ġb om
o id
Ġm Ãłn
Ġx anh
o z
Ġph Ã¹
X in
u z
orr ow
Ġv á»ĳn
B á»Łi
us e
Ġhu áº¥n
Ġthá» ¥
Ġav ail
F A
Ġ199 9
it a
Ġbeh ind
\" "}
ac y
Ġfor ce
Ġgr ad
Ġkh iá»ĥn
Nh iá»ģu
se qu
Ġc reat
ĠÄĳ áº£ng
Ġal one
Ġair craft
Ġannoun ced
ĠR ober
19 9
Ġc oll
Ġt áºŃn
Ġtr á»¥c
ev ision
as ing
ĠR ich
ill s
om s
Ġl ao
ĠAr my
Ġl áº¯ng
Ġsign ific
Ã² i
Ġng Ã¢n
ri an
Ġind epend
Ġtr Æ°ng
ĠÂ °
Ġtá» ı
Ġchá» ¥
an ia
Ġsit u
Ġs iÃªu
ly mp
air s
v al
ĠFranc is
ens ive
i que
ĠUn ion
Ġpri v
ĠnÃ³ ng
ĠL áº¡p
Ġbr ain
Ġ196 0
Ġtr á»¯
ĠJ o
Ġm ot
ĠII I
ec ially
Ġ á»
Ġsu gg
Ġh á»ģ
ĠS chool
av es
Ġsc ient
Ġst at
pl es
S t
Ġres pect
ĠA c
ĠDav id
Ġwant s
Ġh Ãºt
Ġnh áº¯c
Ġm ount
Ġw id
Ġs ch
A r
Ġprodu ced
Ġch áº£y
c el
ĠC ount
ĠM ary
L Ãł
Ġch Ã³
Ġpre vious
s y
Ġk id
Ġatt empt
A l
i ers
ĠGi áº£i
Ġh ot
ÄĲ áº¿n
ĠO l
ĠH igh
Ġc oup
ĠB ay
Ġph Ã¡n
Ġs ort
i os
i h
Ġlong er
ber t
Ġt Ã¡ch
as k
Ġf oc
ĠRuss ian
ĠÄĳ iÃªn
ĠGerman y
Ġwr itten
un t
f ect
Ġtr o
Ġ( \"
r ing
r ay
Ġm á»Ļ
Ġh Ã¨
ĠF lor
Ġt áº¯c
Ġh áº¡nh
Ġm Ã´n
ĠO lymp
Ġd ie
c a
ĠH ouse
al a
ci ety
Ġab s
m ar
Ġh áº¥p
ĠAng el
Ġd á»«ng
Ġ199 8
Ġty pe
Ġm ach
it or
ĠPe ople
Ġg ames
if ul
on a
ĠS im
ĠS ince
W h
m ore
á»£ i
v a
wo od
Ġf ac
Ġp ot
Ġcr it
Ġ8 0
ĠP an
Ġacc ount
Ġimp ro
Ġresp ons
Ġv áº½
Ġpol ice
uy áº¿n
Ġar my
if f
ĠÄĳ uá»ķi
Ġprogr am
Ġc y
Ġchá»ī nh
D Ã¹
Ġqu en
Ġjo ined
Nh Ãł
Ġs Ã³c
Ġcare er
Ġ +
l a
Ġf em
Ġnh áº£y
ĠChar les
ĠGi Ã¡o
ag o
Ġph Ãºc
Ġsh ot
Ġrelations hip
e at
r om
Ġd rug
Ġco ver
Ġpart s
un k
8 0
ob al
Ġpartic ip
Ġm iá»ħn
Ġac cept
Ġc ivil
s inh
ci ent
Ġst uff
ort un
er ation
Ġp ict
ĠR eg
or der
ĠC Ã´
Ġx Ã¢m
uc le
ch e
min ist
ĠW ash
ĠGen eral
Ġsystem s
ĠAr ab
Ġexact ly
Ġd am
) "}
Ġt Æ°á»Ľc
Ġn a
Ġcould n
Ġ Î
Ġng Æ°á»£c
ab ility
Ġne g
ĠG al
ri ev
Ġco ast
itt ed
Ġtechn ology
ber g
Ãµ i
id ing
p ed
ĠSy ria
p ose
n ow
Ġs ir
ĠKore a
Ġpar ents
ĠR ec
ĠWill iam
Ġh á»©ng
Ġinclud ed
H o
ĠD is
Ġqu áº£ng
Ġcap t
Ġey es
Ġlist en
ĠAcc ording
fic ult
Ġdis e
Ġn á»Ĺ
Ġs Äĥn
ist ic
Ġla unch
Ġk il
Ġb uy
Ġf und
ir m
Ġph Ã¡o
Ġpr ed
er ve
Ġrele ase
ĠchÃº a
Ġch im
Ġavail able
ĠD el
Ġred u
Ġcle ar
an ish
Ġcá» ±
ĠM os
ĠÄĳ Æ°Æ¡ng
Ġcan not
NÃ³ i
Ġtá» Ŀ
. ,
Ġm id
ell ing
Ġtit le
Ġthá»ı a
á»ģ m
Ġch ance
Ġl Ã¡i
Ġth uyá»ģn
Ġa ng
ĠÃļ c
ow ers
Ġx ong
T iáº¿ng
Ġre act
ate ver
T Ãªn
B C
h ead
Ġdif ficult
Ġnat ural
a id
Ġh Ã£ng
Ġhist or
Ġb attle
Ġgu ess
Ġta x
Ġs áº»
ce ed
Ġwon der
Ġal though
c u
us band
á»ı a
Ġn orm
ĠC ong
c ing
Ġevery one
Ġs il
Ġtr uyá»ĩn
ĠAr gent
Ngh e
ol s
Ġt en
Å© i
Ġ áº©n
Ġgr and
Ġch em
Ġsignific ant
ĠWash ington
ĠB ill
Ġch á»ĳi
Ch ÃŃnh
Ġd Ãłng
Ġ199 7
Ġspec ific
Ġcr oss
Ġc Ã¢n
Ġwr ote
a ign
Ġb irth
Ġw anna
ĠW il
Ġe ight
Ġthá»ĭ t
ĠM ost
osp ital
Ġreport ed
Ġg Ã£
\" )
Ġf ell
esp ecially
em ents
in i
ĠÄĳá» īnh
Ġch Ãłng
is es
Ġs Ã³t
Ġchang ed
Ġc áº§m
Ġb omb
Ġkh Ã¡ng
Ġ194 5
Ġdec ided
Ġl áº¡nh
Ġan al
Ġ18 6
á»į t
ĠAl though
ĠT wo
j i
Ġen c
Ġmá» «ng
ĠP et
al le
re y
ĠN a
ĠIn ternet
Ġm á»ģm
Ġp iec
Ġph one
ĠL ike
Ġtr uy
Ġag re
Ġword s
Ġinst ead
Ġcontin ued
ĠAr t
st r
ĠB ro
ed d
g es
Ġh iá»ĩp
Ch a
Ġqu ite
ub e
ĠM ark
Ġtr ust
Ġt áº¥m
Ġen vironment
Ġha ven
an i
Ġm áº¯c
Ġim ag
ĠWh ile
gy pt
ĠAn y
med i
om m
ĠL ist
Ġvill age
A T
Ġre ady
Ġcre ate
Ġg one
Ġth ous
ĠC O
4 3
Ġst ates
ĠSt e
ĠP ri
ish ing
ĠSt ate
at ors
Ġx o
Ġm áº¡ch
Ġf t
Ġde ep
ĠH ere
ag on
oun cil
Ġsec ret
ĠM ac
Ġm áº½
Ġdescrib ed
Ġneed s
7 0
ĠMin ister
ĠÄĳ Ã¡p
le ment
Ġgr ound
s u
ĠG reat
at al
Ġits elf
Ġvir us
e h
Ġa x
ĠÄĲ áº£ng
ĠÄĳ Ãª
I D
Ġn áº¯m
Ġ195 0
Ġs us
Ġs ister
l t
M Ãły
Ġh usband
Ġe ast
it es
at o
Ġk ids
du ct
Ġsh oot
ĠIs land
Ġth Ãª
ĠCom p
ĠTh á»¥y
Ġup on
Ġb Ã£o
Ġb aby
Ġ199 4
ate g
n al
ĠN ob
Ġweek s
Ġs elf
Ġsur r
ar ing
Ġacc ess
Ġsuccess ful
Ġt Æ°á»Ŀng
Ġm ur
Ġgroup s
Ġproblem s
Ġde g
Ġsu ff
ĠDiv ision
riev ed
ĠVi r
o ke
Ġtr ied
Ġ áº¥n
Ġ199 2
ĠS ol
Ġopp os
Ġam ount
Ġs ense
ĠE gypt
o ft
Ġh á»©a
á»į a
B á»įn
Ġs ound
ĠM ic
ĠEn ter
at ory
Ġtem per
o ff
ĠD ist
Ġrel ig
ch ie
áº· m
Ġth ao
und red
Ġw est
ot o
i ents
Ġn ice
ĠÄĳ em
ĠGr and
Ġkh Ãºc
Ġ especially
Ġplay er
Ġtel evision
ec ess
ay a
hi b
B á»ĳ
ı i
Ch áº¯c
Ġ199 6
Ġcon v
ul arly
Ġpol ic
ĠM á»Ļt
Ġse ven
ol f
ĠO f
Ġfun ction
Ġo pt
un ic
ĠS il
2 1
?\" ","
Ġr ange
C uá»Ļc
g n
Ġsup posed
Ġrad io
per or
Ġmeth od
Ġ9 0
Ġplay ing
Ġt Ãłng
Ġhapp y
ĠS ir
ĠB ur
end er
Ġst e
ĠC áºŃp
Ġim m
ord s
Ã¨ n
Ġb á»ģ
Ġd er
ĠâĢ Ķ
ĠKing dom
Ġqu á»¹
Ġ7 0
ĠW ars
Ġc Æ°á»Ľi
Ġ199 5
Ġem ploy
Ġng uyá»ĩn
Ġthu Ãª
ell a
Ġnor thern
Ġl áº«n
Ġtr Ãło
Ġs leep
ĠCent ral
B á»Ļ
Ġnew s
Ġs outhern
Ġb á»¯a
Ġgi Ãł
Ġgo es
Ġprom ot
Ġ ill
Ġd iá»ĩt
o or
ã ģ
ĠM áº·t
ĠT Æ°
ĠC arl
Ġc ai
Ġqu ang
k o
} }
ic ated
ip le
if t
Ġ199 1
Ġdr ink
Ġcomput er
Ġeduc ation
A i
Ġg e
Ġn Ã¢ng
Ġwh ite
ic le
Ġcommun ity
á» ¡
Ġm Ã¹
Ġknow s
r is
Ġ ur
Ġcol lect
T ao
ar ily
Ġeconom ic
ĠNg Æ°á»Ŀi
l et
Ġn ov
Ġk ey
ĠTh om
Ġst ri
h aps
ĠRober t
Ġcoup le
g in
Ġhá»į p
o ch
Ġh Ãłi
) ","
Ġc Æ°á»Ŀng
ĠMich ael
Ġe arl
ĠLou is
ĠL os
Ġtr avel
C Å©ng
Ġl Å©
2 2
4 5
ap t
Ġbre ed
os h
Ġt Ã¡n
f ield
Ġd á»įa
ree k
Ġform ed
Ġc ause
Ġm Æ°á»Ŀi
Ġm Ã¡i
Ġw all
ĠGo vern
Ġtr aining
Ġab ove
Ġb áº¡o
Ġc ast
st ant
Ġj our
Ġcent ral
Ġm Ã£i
Ġtak es
Ġprof ession
Ġtr i
ĠS en
ight s
Ġtá» ī
ar n
Ġpr ison
Ġqu áºŃn
Ġhy dro
Ġro ad
Ġng á»«ng
Ġc ust
os ph
ĠT ell
Ġc ases
Ġb all
ĠC ub
Ġlear n
N Ãły
Ġ5 00
Ġto m
Ġt Ã¡
ou b
ĠM et
Ġsa ve
ĠPart y
C áº£
inn er
od es
Ġbeaut iful
Ġch áº·n
Ġph iáº¿u
ĠD em
ian a
ĠEng land
Ġconc ern
ĠRet rieved
ĠP lease
Ġx áº¡
Ġbeg inning
Ġsc ience
Ġ u
el e
s en
ak h
Ġt Ãłn
Ġse a
Ġb illion
Ġwe ap
ort s
Ġcamp aign
Ġcomp an
m á»Ļt
Ġcomp lex
alle ng
um e
ĠC amp
ĠÄĲ áº¥t
Å «
Ġst ep
Ġnum bers
Ġs áº¯t
ak er
il i
ĠLe e
ut ions
ĠB ang
ĠHen ry
Ġl ÃŃ
Ġcomm and
Ġso ft
il ities
itt ing
ĠC Ã¡c
Ġchá»¥ p
Ġs ize
Ġx á»©
Ġdisco vered
Ġh Ã¹ng
Ġfor e
Ġt an
ĠS ar
arr ia
ĠH á»ĵi
Ġy Ãªn
Ġfe et
E D
Ġw ish
Ġser ious
Ġbu á»ĵn
Ġthrough out
Ġch áº¡m
Ġ199 3
ĠÃ Ķng
Ġplan et
ad es
Ġn etwork
av al
ĠC am
Æ°á»Ľ p
Ġh ang
ĠB Ã¬nh
Ġperson al
Ġans wer
ir es
Ġn ucle
Ġph á»ıng
ĠâĻ «
Ġapp oint
Ġkh áº£o
in ing
iver se
B Ãłi
Ġp ark
ĠF in
ist ry
Ġgiá» ıi
Ġh Ãłm
Ġfin ally
C A
ce an
ĠAr ch
m on
Ġs un
Ġpe ace
b s
. ."}
Ġth Æ°á»Ľc
Ġb and
Ġl iter
Ġget s
ĠH aw
Ġg old
Ġd ig
Ġd oll
Ġquy á»ĥn
Ġh áº¡m
ĠH iá»ĩp
Tr uy
Ġcomp os
ĠS ao
R á»ĵi
Ġinvol ved
Ġd á»įc
Ġcell s
Ġ3 5
Ġthe ory
Ġa chie
Ġterr it
ĠPhilipp ines
e um
Ġn á»Ĺi
Ġto night
Ġpl ann
Ġsp ent
sy ch
Ġex cept
ib ility
re land
ear s
Ġdec l
ĠCh ÃŃnh
Ch Ã¡u
Ġb áº¡c
Ġd áº·m
ĠKore an
Ġt áº¯t
as ion
ĠR om
Ġh undred
ap ore
ĠInd ones
Ġact ion
ĠN Ã³
Ġfoll owed
Ġfig ure
Ġf ast
Ġs ung
ĠPol and
ĠTok yo
Ġrun ning
if y
Ġcá» Ŀ
ab or
Ġsub ject
Ġvá» ¡
Ġlook s
Ġvi ol
Ġ áº¡
ĠVi ctor
ĠO k
Ġsup er
Ġadd ition
Ġ Æ°u
ĠAfric an
Ġs el
ĠAt l
ĠA h
C N
E S
V Ã¢ng
Ġst ation
ĠW estern
Ġappro ach
ĠO s
ĠTh iÃªn
Ġchu á»Ĺi
ĠR ome
ĠÄĳ áº¡n
u x
Ġdo g
ĠT iÃªn
Ġexper ience
ĠC ast
Ġtr uth
Ġsh are
Ġox y
ĠI reland
Ġf ly
Ġd ark
Ġm Ã©t
Ġl iá»ĩt
Ġp ers
or es
ĠH ung
or a
Ġnh áº¹
ĠAs ia
Ġs ite
ĠIn ter
Ġneed ed
b our
Ġgot ta
5 00
le et
ĠÄĲ áº¿
e ast
ra v
Ġval ue
c ast
ĠM any
Ġt arg
ĠO t
in ary
Ġc ities
L Ãºc
ĠSp anish
Ġho ang
ver age
ĠJ ul
Ġtá»ķ n
f ra
Ġm arria
Ġ194 4
ĠSc ot
bo ard
ĠO ur
Ġright s
ĠMus ic
Ġng áº§m
Ġl an
ĠG et
hi ch
Ġanim als
ĠD NA
ĠT ex
Ġbro ad
ir o
im ent
Ġsur face
Ġs we
ĠB C
Ġthem selves
ÃŃ a
Ġr iver
ĠI ran
Ġph Ã¡i
Ġt á»ĳng
eb r
Th Ã¡ng
Ġmur der
k rain
as tern
Ġe at
Ġchang es
in ct
Ġh or
Ġex ec
Ġr ate
ĠE r
Ġgi Ãłu
Ġc áº·p
Ġf ine
Ġsign ed
Ġgi Ã¢y
Ġd á»ĳi
V ÃŃ
Ġhigh er
ĠkÃª nh
Ġh áº¹n
Ġthu áº¿
Ġfound ed
Ġwh ether
ict ion
Ġv áº¿t
ad d
og le
Ġa ward
ĠL o
ĠPl ay
C O
re et
Ġreach ed
Ġar g
Ġfore ign
Ã Ģ
ĠR ob
Ġne igh
Ġb ur
g ed
y e
ĠCh ampions
ĠSing apore
Ġh uyá»ĩn
ĠSt ud
Ġ ung
Ġb áºŃt
Ġterm s
Ġth a
Ġl áº§m
ĠS um
Ġsaf e
v iew
Ġ Ð
ir a
i ation
ĠEm pire
Ġc áº¥m
Ġb ank
Ġcurr ent
im b
Ġall owed
ur s
N Ãªn
ĠGr oup
Ġa ud
Ġth iá»ĩt
Ġkh á»ĳi
ĠP eter
st on
Ġ194 0
Ġx Æ°Æ¡ng
ak a
l ike
Ġtr ade
ĠB u
Ġturn ed
ĠR ev
?\" "}
Ġpo or
Ġo il
ĠJ ew
Ġb ed
Ġdist rib
Ġto uch
Ġm Æ°a
ĠM er
Ġth áºŃn
M á»Ĺi
ar ies
Ġ198 9
Ġqu Ã¡n
Ġpl ant
Ġth áº©m
A N
ĠG ood
Ġgi Ã³
Ġprot ein
Ġb ase
Ġ á»ĳng
Ġm ic
Ġdesign ed
Ġstud ents
C uá»ĳi
Ġtr ÃŃch
Ġg Ã³c
ĠIt s
Ġt áº¡m
ĠDist rict
c ul
áºŃ c
Ġris k
Ġcont ract
Ġev idence
ĠLat in
Ġv Ä©
Ġhapp ens
Ġn iá»ģm
ĠT a
uf act
ol ic
ĠL ong
ch an
Ġth Äĥng
g a
Ġm ath
Ġse arch
ĠO ther
ĠE ven
7 5
ĠU krain
ĠRuss ia
Ġ3 00
ĠTr iá»ģu
Ġh om
Ġdet erm
Ġl ower
Ġre lated
Ġth Ã¡c
Ġtrans fer
Ġl ived
Ġeas y
Ġcont act
Ġl ay
ĠM ax
Ġad minist
st ein
âĢĿ ."}
ĠRich ard
Ġc el
Ġsim ple
ĠS aint
ĠQue en
ĠH el
Ġb á»¥
Ġng Ãłn
ĠB ol
I S
Ġrecord ed
A R
Ġseem s
Ġth Ã¡nh
ĠB o
s ter
Ġre ve
Ng ay
ĠÄĳá» ©c
Ġtr á»ĳng
ĠH ave
Ġb Ã£i
ĠJ im
ant ic
Ġrem ained
ĠR oyal
Ġ194 2
Ã© n
¦ y
t Ã´i
Ġcom mer
Ġgirl s
Ġ Å
S h
O S
it iz
Ġcomplet ely
Ġcour t
Ġ Ø
m it
Ġgi Ã¡p
ÄĲ Ãºng
Ġtom orrow
Ġt áº·ng
Ġth Ã¡ch
ett e
ĠN iger
Ġg áº¯n
Ġm m
Ġkh Ã³a
ĠSec ond
ĠC ont
Ġpr es
Ġp ull
Ġch áºŃm
ĠA p
Ġev ents
Ġfav or
ĠT w
Ġpartic ular
Ġsec urity
ĠU nd
Ġd raw
2 9
Ġth áº£i
ĠD ep
E R
ound ed
ĠZ eal
ĠQu Ã¢n
Ġdise ase
ic ations
Ġmed ia
Ġph Ã³
2 6
Ġw ays
c an
ĠArgent ina
ros oft
ĠK en
ĠCol le
Ġh iáº¿n
Ġch Ã³ng
r ol
Ġhigh est
h ood
Ġv ac
Ġp en
ĠB attle
áº³ n
t ime
ĠP ac
ers hip
ĠCh ile
ĠR h
Ġcult ure
Ġserv ices
iá»ĩ ng
ĠM inh
ĠF C
C Æ°á»Ŀi
Ġd anger
o áº¡i
Ī Ĵ
ific ation
Ġgener ally
Ġmeet ing
ĠG h
Ġcaus ed
Ġv ong
ĠZeal and
Ãº y
c ome
Ġappro xim
ĠM ount
Ġevent ually
r um
Ġl á»ĳi
Ġb áºŃc
Ġng áº¡c
as ons
Ph áº§n
Ġcompan ies
ir l
B áº£n
ĠL ib
ĠItal y
Ġc Ã£i
Ġh ospital
Ġb áº£y
it ect
ad o
om er
el a
Ġdo or
Ġch Ã¡y
Ġre b
ĠK ar
Ġwor th
Ġhá»Ļ p
ĠPol ish
Ġc Ãł
ĠSe a
m m
Th Ãłnh
oc r
g t
Ġ er
Ġth ai
Ġho Ã¡
ĠCh á»§
Ġp ath
ĠM od
Ġmov ing
d a
Ġr out
us ion
Ġfoc us
i ot
Ġh Æ°
Ġsy n
Ġn Ã©m
ĠSt ar
ect or
ĠB or
Ġt Ä©nh
Ġtrans port
Ġt Ã´
Ġcá» ©ng
Ã¬ a
T V
k en
ib ly
Ġappear ed
ĠL uc
ĠH Ãł
ex t
Ġc Æ°á»Ľp
Ġto r
Ġf ix
Ġgiá» įng
Ġindust ry
Ġg od
Ġl oss
ĠCol omb
Ġdo cum
Ġcle an
Ġ Æ¡i
ĠH u
Ġim medi
Ġn ature
Ġmean ing
ĠEd ward
Ġch alleng
ĠF ed
Ġe arth
ĠD u
Ġmil es
Ġcent er
Ġstruct ure
ĠD i
r id
Ġmarria ge
fer ence
em at
á»ĭ p
ra q
Ġb ene
Ġd ate
Ġg as
k hÃ´ng
Ġj ud
Ġnam es
Ġt iá»ĩc
Ġany more
Ġal ive
Ġ .
Ġ eth
Ġb ox
ĠF il
Ġcont rib
h o
Ġkh á»ķ
ĠD ev
Ġd Æ°á»¡ng
Ġpriv ate
ĠGo ogle
ĠG old
Ch uyá»ĩn
ĠMal ays
Ġpr inc
Ġvis it
Ġ Ã¡c
Ġor d
Ġd om
ĠK inh
w a
Ġl Æ°á»Ľi
en z
Ġ193 0
Ġm ine
at ively
Ġ ^
ri ch
Ġl Æ°Æ¡ng
ĠCh arl
Ġcurr ently
ke y
Ġr Ã£i
Ġdel iver
Ġ18 5
Ã¨ m
Ġtro ops
Ġst age
ĠÄĳ Ã²i
Ġm iá»ĩng
áº¥ c
I N
Ġch áº¥m
Ġtreat ment
Ġpre c
Ġg áº¥p
iáº¿ c
Ġmiss ion
ĠItal ian
et a
Ġs áº¡ch
ak i
á»Ļ m
ill a
Ġsh all
Ġest im
Ġ194 3
Ġc ru
Ġman ufact
ĠTh Æ°á»£ng
á»© t
Ġl Æ°á»£t
s k
2 8
Ġ4 5
Ġth ang
pr ession
Ġcar ry
Ġru le
Ġwr ite
up t
Ġnh Ã¡nh
h y
Ġle aving
Ġperform ed
Ġm at
ĠAngel es
Ġcon cept
á»ĭ nh
Ġp sych
ĠScot land
Ġgl obal
Ġb Ã²
ar ian
Ġsh ows
Ġfre qu
h ab
Ġtell ing
ĠCar ol
ĠÄĳ Æ°Æ¡
ĠL ord
Ġch áº·t
O h
it an
Ġocc up
ĠM el
Ġcar bon
Ġdef in
Ġsour ce
Ġac id
ĠTex as
e en
Ġbel ong
o ver
oth ers
k n
Ġv Æ°á»Ŀn
ĠB oy
Ġf elt
ĠH am
Ġmed ical
Ġn ecess
il a
Ġb urn
Ġn ob
em ic
ĠSup er
Ġb order
Ġwh atever
ĠÄĲ Ã³
Th á»±c
Ġt iÃªm
Ġg a
Ġfeat ures
l ict
Ġto wards
as hi
am in
oun ter
Ġm ix
ĠA z
Ġf arm
ell ed
iz ing
ĠT y
Ġconsid er
Ġon es
ĠL aw
Ġintrodu ced
ĠIndones ia
b ook
4 7
Ġv iá»ħn
C l
Ġcho ice
pp ed
ĠT or
it ude
Ġt Ã³c
Ġh i
Ġh iáº¿m
ĠInd ian
Ġacc ording
Ġopen ed
Ġext rem
3 5
9 0
Ġth Ã¡p
o es
Ġfam ous
Ġweb s
Ġsitu ation
ÄĲ Ã£
Ġcá»± u
Ġf ear
Ġv inh
o áº£ng
ĠFrancis co
Ġsp read
Ġad op
ĠUnd er
er ry
ĠtÃ¹ y
Ġem erg
Ġc orr
Ġprov ide
Ġdisc uss
unic ip
Ġa verage
Ġcons ist
ig r
Ġwor ry
re ater
Ġsum mer
Ġh op
Ġl ink
Ġm Å©i
Ġkh Ã¡i
ĠD Ã¢n
Ġtr ib
um an
ĠMic rosoft
Ġth áº§y
ĠS a
Ġfe ed
Ġfoll ow
ĠK y
Ġs al
ĠP re
ĠFor ce
ĠÄĳ ua
Ġpower ful
Ġa w
Ġfem ale
is ions
el ess
ov a
Ġbeh av
ĠNh Ã¢n
ag a
Ġper fect
Ġdis app
Ġthu a
r ight
ĠC ouncil
anc ed
Ġgrow th
4 8
ĠU h
ĠA v
ain e
Ġlangu ages
Ġincre ase
Ġmove ment
ĠC our
Ġtrad itional
Ġs ens
il ed
ĠI raq
Ġra p
ĠChrist ian
Ġship s
Ġph áº¡t
Ġlead ing
j a
ol k
Ġr ound
im s
Ġall ow
Ġch Ãło
Ġngh á»ģ
Ġbook s
Ġinvest ig
i qu
Ġh Ã²n
Ġbelie ved
w est
ĠM at
Ġf ish
ĠC ath
Ġreg ard
Ġarri ved
Ġmach ine
Ġh urt
ĠS ong
Ġstand ard
Ġme ant
arl iam
Ġin n
Ġperform ance
Ġgi ving
Ġgrad u
Ġwh ose
C Ã¢u
ian o
ĠM as
ĠThom as
ĠIs lands
ĠN ap
raz y
Ġprofession al
ĠWh ite
Ġm iddle
ad ed
Ġm ist
ĠPr ince
ĠSe e
7 1
â Ļ
Ġpre vent
Ġthan k
ĠVir gin
e gr
Ġngh Ã¨o
ĠN avy
or i
ĠS ur
Ġtr á»ĵng
ĠTh ank
Ġ198 8
Ġmate rial
Ġk Ãªu
Ġn inh
Ġpict ure
az ine
Ġsur pr
ĠR os
ĠS u
Ġd en
Ġar en
Ġdeb ut
Ġcáº£ ng
ĠOn ly
Ġincre ased
Ġng Æ°Æ¡
Ġdist rict
Ġr ank
ot a
ol es
Ġatt ention
n es
j oy
ĠP ak
itt ee
ĠH ong
ĠUS D
Ġnov el
Ġgo al
Ġ198 6
o i
ĠB áº£o
Ġ et
ĠA th
Ġpress ure
Ġl ose
Ġd Æ°á»Ŀng
Ġng á»įn
Ġm á»ı
ĠG reen
ĠD ay
Ġproduct s
ĠÄĳá» Ľi
Ġb ott
arliam ent
Ġth áº£
Ġlarg er
Ġkil omet
re l
Ġ á»ķng
ĠH a
Ġoper ations
e z
Ġact ive
ograph y
Ġindivid ual
Ġdirect or
Ġquest ions
Ġlik ely
ĠÄĳ á»ĳt
f l
Ġan cient
Ġd ream
B a
ene z
ur b
anc y
Ġpartic ularly
ai re
Ġc ry
Ġs end
Ġch urch
ĠTh Ãłnh
Ng Æ°Æ¡i
ann el
Ġh á»ĵn
Ġo p
Ġh Æ°Æ¡ng
ĠT own
Ġha ir
Ġlook ed
Ġinclud es
Ġtr Ãº
ĠH all
ĠN ic
Ġn Ãłng
ĠComm un
ĠR am
ĠK ong
Ġm áº¡c
ĠR ight
Ġm ention
at ives
Ġsome body
Ġearl ier
Ġrem ain
Ġwait ing
ast y
ĠIn stit
e ng
Ġdo ctor
Ġco ol
Ġdec ision
Ð °
Ġso ciety
Ġkhu áº©n
ing er
ĠH á»ĵng
ĠG reek
Ġwr iting
ĠAc ad
V á»ģ
ĠA k
Ġeffect s
Ch á»ĭ
ĠSt r
ĠVi á»ĩn
ĠP at
Ġcon duct
Ġnorm al
Ġapproxim ately
Tr Ãªn
ĠTh á»ķ
Ġte xt
Ġsp ir
Ġpl aces
Ġfight ing
ast ic
Ġconst ruction
Ġopp ortun
Ġá» ¦y
ĠR y
Ġgh Ã©t
f ri
Ġsl ow
Ġp aper
Ġphys ical
Ġgi áºŃn
L áº§n
id er
H iá»ĩn
ĠR ad
Ġgi áº£ng
Ġcond itions
fra id
Ġph áº«u
ĠCub a
ĠL ove
kn own
Ġa fraid
Ã ±
Ġcons um
er ved
ĠT ake
Ġsc reen
3 6
Ġc itiz
w an
ĠCh urch
ell ig
Ġab ility
Ġ18 0
ĠT od
K á»ĥ
Ġ19 20
Ġho áº£ng
ri er
Ġl áº»
i i
ĠCount y
Ġc ode
Ġc áº£n
Ġw estern
Ġstre ngth
ĠPac ific
gh an
Ġdet ail
9 9
Ġng ang
M S
á» ª
Ġpiec e
ĠÄĲ Ãło
Ġst ories
Ġt áº£ng
Ġtr ouble
Ġprodu ce
aul t
ĠC a
Ġform s
Ġm er
Ġkhu Ã´n
es is
Ġph e
Ġlead er
Ġd ro
ar ia
Ġl iá»ģn
Ġext ra
tern al
Ġth Æ°á»£ng
ĠB ob
1 00
Ġhe avy
w ide
Ġkh á»©
