{
  "version": "1.0",
  "truncation": null,
  "padding": null,
  "added_tokens": [
    {
      "id": 0,
      "content": "<unk>",
      "single_word": false,
      "lstrip": false,
      "rstrip": false,
      "normalized": false,
      "special": true
    },
    {
      "id": 1,
      "content": "<s>",
      "single_word": false,
      "lstrip": false,
      "rstrip": false,
      "normalized": false,
      "special": true
    },
    {
      "id": 2,
      "content": "</s>",
      "single_word": false,
      "lstrip": false,
      "rstrip": false,
      "normalized": false,
      "special": true
    },
    {
      "id": 3,
      "content": "<pad>",
      "single_word": false,
      "lstrip": false,
      "rstrip": false,
      "normalized": false,
      "special": true
    }
  ],
  "normalizer": null,
  "pre_tokenizer": {
    "type": "ByteLevel",
    "add_prefix_space": false,
    "trim_offsets": true,
    "use_regex": true
  },
  "post_processor": {
    "type": "ByteLevel",
    "add_prefix_space": true,
    "trim_offsets": false,
    "use_regex": true
  },
  "decoder": {
    "type": "ByteLevel",
    "add_prefix_space": true,
    "trim_offsets": true,
    "use_regex": true
  },
  "model": {
    "type": "BPE",
    "dropout": null,
    "unk_token": null,
    "continuing_subword_prefix": null,
    "end_of_word_suffix": null,
    "fuse_unk": false,
    "byte_fallback": false,
    "ignore_merges": false,
    "vocab": {
      "<unk>": 0,
      "<s>": 1,
      "</s>": 2,
      "<pad>": 3,
      "!": 4,
      "\"": 5,
      "#": 6,
      "$": 7,
      "%": 8,
      "&": 9,
      "'": 10,
      "(": 11,
      ")": 12,
      "*": 13,
      "+": 14,
      ",": 15,
      "-": 16,
      ".": 17,
      "/": 18,
      "0": 19,
      "1": 20,
      "2": 21,
      "3": 22,
      "4": 23,
      "5": 24,
      "6": 25,
      "7": 26,
      "8": 27,
      "9": 28,
      ":": 29,
      ";": 30,
      "<": 31,
      "=": 32,
      ">": 33,
      "?": 34,
      "@": 35,
      "A": 36,
      "B": 37,
      "C": 38,
      "D": 39,
      "E": 40,
      "F": 41,
      "G": 42,
      "H": 43,
      "I": 44,
      "J": 45,
      "K": 46,
      "L": 47,
      "M": 48,
      "N": 49,
      "O": 50,
      "P": 51,
      "Q": 52,
      "R": 53,
      "S": 54,
      "T": 55,
      "U": 56,
      "V": 57,
      "W": 58,
      "X": 59,
      "Y": 60,
      "Z": 61,
      "[": 62,
      "\\": 63,
      "]": 64,
      "^": 65,
      "_": 66,
      "`": 67,
      "a": 68,
      "b": 69,
      "c": 70,
      "d": 71,
      "e": 72,
      "f": 73,
      "g": 74,
      "h": 75,
      "i": 76,
      "j": 77,
      "k": 78,
      "l": 79,
      "m": 80,
      "n": 81,
      "o": 82,
      "p": 83,
      "q": 84,
      "r": 85,
      "s": 86,
      "t": 87,
      "u": 88,
      "v": 89,
      "w": 90,
      "x": 91,
      "y": 92,
      "z": 93,
      "{": 94,
      "|": 95,
      "}": 96,
      "~": 97,
      "¡": 98,
      "¢": 99,
      "£": 100,
      "¤": 101,
      "¥": 102,
      "¦": 103,
      "§": 104,
      "¨": 105,
      "©": 106,
      "ª": 107,
      "«": 108,
      "¬": 109,
      "®": 110,
      "¯": 111,
      "°": 112,
      "±": 113,
      "²": 114,
      "³": 115,
      "´": 116,
      "µ": 117,
      "¶": 118,
      "·": 119,
      "¸": 120,
      "¹": 121,
      "º": 122,
      "»": 123,
      "¼": 124,
      "½": 125,
      "¾": 126,
      "¿": 127,
      "À": 128,
      "Á": 129,
      "Â": 130,
      "Ã": 131,
      "Ä": 132,
      "Å": 133,
      "Æ": 134,
      "Ç": 135,
      "È": 136,
      "É": 137,
      "Ê": 138,
      "Ë": 139,
      "Ì": 140,
      "Í": 141,
      "Î": 142,
      "Ï": 143,
      "Ð": 144,
      "Ñ": 145,
      "Ò": 146,
      "Ó": 147,
      "Ô": 148,
      "Õ": 149,
      "Ö": 150,
      "×": 151,
      "Ø": 152,
      "Ù": 153,
      "Ú": 154,
      "Û": 155,
      "Ü": 156,
      "Ý": 157,
      "Þ": 158,
      "ß": 159,
      "à": 160,
      "á": 161,
      "â": 162,
      "ã": 163,
      "ä": 164,
      "å": 165,
      "æ": 166,
      "ç": 167,
      "è": 168,
      "é": 169,
      "ê": 170,
      "ë": 171,
      "ì": 172,
      "í": 173,
      "î": 174,
      "ï": 175,
      "ð": 176,
      "ñ": 177,
      "ò": 178,
      "ó": 179,
      "ô": 180,
      "õ": 181,
      "ö": 182,
      "÷": 183,
      "ø": 184,
      "ù": 185,
      "ú": 186,
      "û": 187,
      "ü": 188,
      "ý": 189,
      "þ": 190,
      "ÿ": 191,
      "Ā": 192,
      "ā": 193,
      "Ă": 194,
      "ă": 195,
      "Ą": 196,
      "ą": 197,
      "Ć": 198,
      "ć": 199,
      "Ĉ": 200,
      "ĉ": 201,
      "Ċ": 202,
      "ċ": 203,
      "Č": 204,
      "č": 205,
      "Ď": 206,
      "ď": 207,
      "Đ": 208,
      "đ": 209,
      "Ē": 210,
      "ē": 211,
      "Ĕ": 212,
      "ĕ": 213,
      "Ė": 214,
      "ė": 215,
      "Ę": 216,
      "ę": 217,
      "Ě": 218,
      "ě": 219,
      "Ĝ": 220,
      "ĝ": 221,
      "Ğ": 222,
      "ğ": 223,
      "Ġ": 224,
      "ġ": 225,
      "Ģ": 226,
      "ģ": 227,
      "Ĥ": 228,
      "ĥ": 229,
      "Ħ": 230,
      "ħ": 231,
      "Ĩ": 232,
      "ĩ": 233,
      "Ī": 234,
      "ī": 235,
      "Ĭ": 236,
      "ĭ": 237,
      "Į": 238,
      "į": 239,
      "İ": 240,
      "ı": 241,
      "Ĳ": 242,
      "ĳ": 243,
      "Ĵ": 244,
      "ĵ": 245,
      "Ķ": 246,
      "ķ": 247,
      "ĸ": 248,
      "Ĺ": 249,
      "ĺ": 250,
      "Ļ": 251,
      "ļ": 252,
      "Ľ": 253,
      "ľ": 254,
      "Ŀ": 255,
      "ŀ": 256,
      "Ł": 257,
      "ł": 258,
      "Ń": 259,
      "Ġt": 260,
      "á»": 261,
      "ut": 262,
      "ng": 263,
      "áº": 264,
      "Ġc": 265,
      "an": 266,
      "Ġth": 267,
      "put": 268,
      ":\"": 269,
      "\":\"": 270,
      "in": 271,
      "at": 272,
      ".\"": 273,
      "es": 274,
      "ĠÄ": 275,
      "ĠÄĳ": 276,
      "Ãł": 277,
      "Ġto": 278,
      "Ġn": 279,
      "et": 280,
      "am": 281,
      "Ġs": 282,
      "Ġh": 283,
      "Ġl": 284,
      "ate": 285,
      "Ġb": 286,
      "Ġm": 287,
      "out": 288,
      "Tr": 289,
      "ĠV": 290,
      "er": 291,
      "ese": 292,
      "ans": 293,
      "Ġv": 294,
      "ĠVi": 295,
      ",\"": 296,
      "late": 297,
      "nam": 298,
      "ĠViet": 299,
      "ĠVietnam": 300,
      "Trans": 301,
      "ĠVietnamese": 302,
      "output": 303,
      "input": 304,
      "Translate": 305,
      "{\"": 306,
      "čĊ": 307,
      "Æ°": 308,
      "on": 309,
      ".\",\"": 310,
      "Ġthe": 311,
      "Ġa": 312,
      ".\"}": 313,
      "Ã¡": 314,
      "Ã´": 315,
      "Ġch": 316,
      "Ġp": 317,
      "Ġw": 318,
      "Ġk": 319,
      "Ġd": 320,
      "Ġg": 321,
      "or": 322,
      "Ġtr": 323,
      "en": 324,
      "Æ°á»": 325,
      "Ã³": 326,
      "ou": 327,
      "is": 328,
      "áº¿": 329,
      "iá»": 330,
      "Ġnh": 331,
      "ed": 332,
      "Ġr": 333,
      "it": 334,
      "Ġo": 335,
      "ar": 336,
      "á»Ļ": 337,
      "nh": 338,
      "Ġan": 339,
      "Ġf": 340,
      "Ġkh": 341,
      "al": 342,
      "áº¡": 343,
      "ing": 344,
      "Ġng": 345,
      "Ġof": 346,
      "áº£": 347,
      "Ġin": 348,
      "ĠI": 349,
      "ĠvÃł": 350,
      "Ãª": 351,
      "áº¥": 352,
      "ĠlÃł": 353,
      "Ġcá»": 354,
      "Ã´ng": 355,
      "ĠT": 356,
      "Ġph": 357,
      "á»ĳ": 358,
      "as": 359,
      "ch": 360,
      "Ã¢": 361,
      "Ġand": 362,
      "re": 363,
      "om": 364,
      "ĠS": 365,
      "ĠA": 366,
      "§a": 367,
      "Ġcá»§a": 368,
      "áºŃ": 369,
      "Ġy": 370,
      "el": 371,
      "Ã¬": 372,
      "Ãªn": 373,
      "Ġ1": 374,
      "Ġvá»": 375,
      "ĠC": 376,
      "ay": 377,
      "á»Ļt": 378,
      "ion": 379,
      "Ġthá»": 380,
      "ic": 381,
      "il": 382,
      "ĠÄĳá»": 383,
      "qu": 384,
      "Ã´i": 385,
      "Æ°á»£": 386,
      "Ã¡c": 387,
      "iáº¿": 388,
      "ong": 389,
      "us": 390,
      "iá»ĩ": 391,
      "Ġmá»Ļt": 392,
      "ĠM": 393,
      "Ġyou": 394,
      "ĠTh": 395,
      "Æ¡": 396,
      "Ã£": 397,
      "áº§": 398,
      "ĠcÃ³": 399,
      "Ãº": 400,
      "Ľi": 401,
      "Ġqu": 402,
      "Æ°á»Ŀ": 403,
      "\\\"": 404,
      "Ġtá»": 405,
      "Æ°á»£c": 406,
      "Äĥ": 407,
      "ot": 408,
      "ĠB": 409,
      "ow": 410,
      "le": 411,
      "ent": 412,
      "ĠÄĳÆ°á»£c": 413,
      "Ġgi": 414,
      "ĠH": 415,
      "Ġe": 416,
      "ÃŃ": 417,
      "?\"": 418,
      "ve": 419,
      "á»į": 420,
      "ĠkhÃ´ng": 421,
      "á»Ł": 422,
      "im": 423,
      "áº¡i": 424,
      "áº¥t": 425,
      "ol": 426,
      "Ġ2": 427,
      "ec": 428,
      "id": 429,
      "Ġis": 430,
      "ĠN": 431,
      "uy": 432,
      "Ãły": 433,
      "á»¯": 434,
      "ĠP": 435,
      "ad": 436,
      "ly": 437,
      "ĠÄĳÃ£": 438,
      "'s": 439,
      "ur": 440,
      "os": 441,
      "Ġx": 442,
      "..": 443,
      "Ġ(": 444,
      "Ġon": 445,
      "Ġwh": 446,
      "ĠW": 447,
      "ig": 448,
      "Ġtrong": 449,
      "ĠtÃ´i": 450,
      "áº¯": 451,
      "Æ°á»Ŀi": 452,
      "ĠcÃ¡c": 453,
      "ĠL": 454,
      "Ġthat": 455,
      "Ġfor": 456,
      "Ġta": 457,
      "ir": 458,
      "Äĥm": 459,
      "ere": 460,
      "Ġbe": 461,
      "á»±": 462,
      "ĠngÆ°á»Ŀi": 463,
      "Ġcho": 464,
      "ter": 465,
      "ver": 466,
      "Ġchá»": 467,
      "Ġit": 468,
      "Ġwas": 469,
      "ĠD": 470,
      "un": 471,
      "ang": 472,
      "Ġvá»Ľi": 473,
      "Ġcon": 474,
      "Ãºng": 475,
      "iá»ģ": 476,
      "th": 477,
      "iÃªn": 478,
      "em": 479,
      "ĠThe": 480,
      "Ã¢n": 481,
      "ce": 482,
      "Ã¬nh": 483,
      "ĠG": 484,
      "00": 485,
      "ĠnÃ³": 486,
      "ĠnÄĥm": 487,
      "ĠÄĳÃ³": 488,
      "Ġha": 489,
      "ith": 490,
      "áº£i": 491,
      "ro": 492,
      "Ġ19": 493,
      "Ġst": 494,
      "áº§n": 495,
      "Ġngh": 496,
      "á»ĭ": 497,
      "Ãłnh": 498,
      "á»¯ng": 499,
      "Ġá»Ł": 500,
      "ation": 501,
      "Ġal": 502,
      "ĠR": 503,
      "áº¥y": 504,
      "á»ĩ": 505,
      "ao": 506,
      "ĠnhÆ°": 507,
      "Ã¢y": 508,
      "ĠnÃły": 509,
      "áº·": 510,
      "ct": 511,
      "ĠF": 512,
      "au": 513,
      "Ġ\\\"": 514,
      "ĠK": 515,
      "Ã²": 516,
      "Ġwith": 517,
      "áº½": 518,
      "Ã¹": 519,
      "Ġthá»ĥ": 520,
      "?\",\"": 521,
      "iá»ģu": 522,
      "?\"}": 523,
      "st": 524,
      "nd": 525,
      "Ġnhá»¯ng": 526,
      "ia": 527,
      "op": 528,
      "uá»ĳ": 529,
      "and": 530,
      "áº¿n": 531,
      "áº§u": 532,
      "Ġas": 533,
      "\"}": 534,
      "á»¥": 535,
      "iáº¿t": 536,
      "ld": 537,
      "Ġhá»į": 538,
      "Ġre": 539,
      "ĠY": 540,
      "Ġra": 541,
      "ul": 542,
      "á»ĵ": 543,
      "ĠE": 544,
      "Ġgiá»": 545,
      "if": 546,
      "est": 547,
      "ĠvÃło": 548,
      "od": 549,
      "Æ°á»Ľ": 550,
      "Ġdo": 551,
      "ĠcÃ¡": 552,
      "©ng": 553,
      "ĠJ": 554,
      "ill": 555,
      "Ã¡ng": 556,
      "Ġsáº½": 557,
      "iá»ĥ": 558,
      "Ġanh": 559,
      "ĠO": 560,
      "ag": 561,
      "áº±": 562,
      "um": 563,
      "igh": 564,
      "Æ°Æ¡": 565,
      "ke": 566,
      "Ġsh": 567,
      "Ġ-": 568,
      "Ġtá»«": 569,
      "ĠchÃºng": 570,
      "ĠÄĳáº¿n": 571,
      "áºŃt": 572,
      "iá»ĩn": 573,
      "Ġwe": 574,
      "'t": 575,
      "inh": 576,
      "ain": 577,
      "ĠÄĳá»ĥ": 578,
      "Ġkhi": 579,
      "Ġfr": 580,
      "ers": 581,
      "ĠÄĳá»Ļ": 582,
      "ant": 583,
      "ĠlÃłm": 584,
      "Ġhe": 585,
      "Ġare": 586,
      "ess": 587,
      "Ãłi": 588,
      "Ġlo": 589,
      "áº¿t": 590,
      "áº£n": 591,
      "ist": 592,
      "ÃŃnh": 593,
      "Ġme": 594,
      "Ä©": 595,
      "Ġho": 596,
      "ĠCh": 597,
      "áº¡n": 598,
      "Ġat": 599,
      "Æ°á»Ľc": 600,
      "Æ°á»Ŀng": 601,
      "Ġsá»ĳ": 602,
      "Ŀi": 603,
      "Ġthis": 604,
      "áºŃn": 605,
      "áº±ng": 606,
      "Æ°Æ¡ng": 607,
      "ri": 608,
      "©c": 609,
      "ung": 610,
      "Ġcáº£": 611,
      "Ġsá»±": 612,
      "ap": 613,
      "Ġcom": 614,
      "iáº¿n": 615,
      "ust": 616,
      "ell": 617,
      "Ġhave": 618,
      "\",\"": 619,
      "Ġby": 620,
      "Æ¡n": 621,
      "ab": 622,
      "Ġpháº£i": 623,
      "Ġ20": 624,
      "Ġvá»ģ": 625,
      "ÄĲ": 626,
      "ight": 627,
      "ĠthÃłnh": 628,
      "up": 629,
      "Ã¡t": 630,
      "Ġlá»": 631,
      "gh": 632,
      "Ã¹ng": 633,
      "ai": 634,
      "Ġnot": 635,
      "ĠÄĳáº§u": 636,
      "art": 637,
      "Ãłn": 638,
      "...": 639,
      "our": 640,
      "Ġne": 641,
      "Ġfrom": 642,
      "Ã©": 643,
      "áºŃp": 644,
      "Ch": 645,
      "á»ķ": 646,
      "Ãło": 647,
      "Ġor": 648,
      "á»ı": 649,
      "Ġde": 650,
      "ould": 651,
      "Ã¢u": 652,
      "ĠÃ´ng": 653,
      "ect": 654,
      "ĠU": 655,
      "TÃ´i": 656,
      "ore": 657,
      "Ġse": 658,
      "ĠmÃł": 659,
      "Ġcan": 660,
      "ĠÄĲ": 661,
      "Ġgo": 662,
      "Ġpro": 663,
      "all": 664,
      "ies": 665,
      "Å©ng": 666,
      "ĠthÃ¡ng": 667,
      "á»Ļc": 668,
      "anh": 669,
      "ity": 670,
      "á»ĳi": 671,
      "iá»ĩc": 672,
      "Ġtáº¡i": 673,
      "Ġtháº¿": 674,
      "ĠgÃ¬": 675,
      "ra": 676,
      "ally": 677,
      "Ãłng": 678,
      "ĠIn": 679,
      "Ġláº¡i": 680,
      "ĠcÃ´": 681,
      "Ã½": 682,
      "ĠnÃ³i": 683,
      "ĠYou": 684,
      "ĠÄĳi": 685,
      "Ġex": 686,
      "Ġbá»ĭ": 687,
      "ĠIt": 688,
      "Ġkn": 689,
      "ome": 690,
      "iv": 691,
      "Ġ201": 692,
      "end": 693,
      "Ġbiáº¿t": 694,
      "ber": 695,
      "Ġchuy": 696,
      "ard": 697,
      "ok": 698,
      "Ġab": 699,
      "ort": 700,
      "á»ģ": 701,
      "ĠcÅ©ng": 702,
      "Ġj": 703,
      "her": 704,
      "Ġus": 705,
      "Ġviá»ĩc": 706,
      "âĢ": 707,
      "Ġsá»": 708,
      "pp": 709,
      "uá»Ļc": 710,
      "±c": 711,
      "ĠngÃły": 712,
      "Ġso": 713,
      "Ġknow": 714,
      "hi": 715,
      "ear": 716,
      "ĠtrÃªn": 717,
      "Ġpr": 718,
      "ak": 719,
      "Ġun": 720,
      "Ġ3": 721,
      "ĠcÃ´ng": 722,
      "Ġ200": 723,
      "ast": 724,
      "Ã¡i": 725,
      "áº·c": 726,
      "Ġwor": 727,
      "á»ĵi": 728,
      "ud": 729,
      "ĠnhÃł": 730,
      "ine": 731,
      "Ġchá»ī": 732,
      "ĠAnd": 733,
      "ame": 734,
      "Æ¡i": 735,
      "ie": 736,
      "Ġall": 737,
      "ĠÄĳá»ĭ": 738,
      "ich": 739,
      "ive": 740,
      "ĠhÆ¡n": 741,
      "Äĥng": 742,
      "ac": 743,
      "Ġmy": 744,
      "Ġyour": 745,
      "ĠÄĳÃ¢y": 746,
      "Ġsu": 747,
      "Ġnháº¥t": 748,
      "Ġpl": 749,
      "Ġhá»įc": 750,
      "Ġmá»": 751,
      "á»įi": 752,
      "ĠkhÃ¡c": 753,
      "Ġem": 754,
      "Nh": 755,
      "ĠÄĳang": 756,
      "Ġtiáº¿": 757,
      "ough": 758,
      "ous": 759,
      "ep": 760,
      "áº¯t": 761,
      "ĠchÃŃnh": 762,
      "ĠnghÄ©": 763,
      "ĠÄĳiá»ģu": 764,
      "Ġsp": 765,
      "Ġdá»¥": 766,
      "áºŃu": 767,
      "\":\"-": 768,
      "áº«": 769,
      "uá»ĳn": 770,
      "Ã²n": 771,
      "Ġhis": 772,
      "one": 773,
      "Th": 774,
      "ÃŃch": 775,
      "ost": 776,
      "á»ĳc": 777,
      "Ġnhiá»ģu": 778,
      "ound": 779,
      "áº¿u": 780,
      "ish": 781,
      "Ã¡n": 782,
      "ment": 783,
      "ĠWh": 784,
      "'re": 785,
      "á»ĩn": 786,
      "Ġgia": 787,
      "Æ°a": 788,
      "ide": 789,
      "ian": 790,
      "áº¯c": 791,
      "Ġwere": 792,
      "á»Ļi": 793,
      "áºŃy": 794,
      "á»ģn": 795,
      "Ġsau": 796,
      "Ġbáº¡n": 797,
      "Ġtháº¥y": 798,
      "ĠHe": 799,
      "nt": 800,
      "Ã¡o": 801,
      "Ġthey": 802,
      "Ġone": 803,
      "á»£": 804,
      "á»ĥ": 805,
      "Ìģ": 806,
      "ĠTr": 807,
      "av": 808,
      "iÃª": 809,
      "Ġle": 810,
      "iá»ĩu": 811,
      "Ġbut": 812,
      "Ġthá»©": 813,
      "ĠSt": 814,
      "Ġher": 815,
      "Ãºc": 816,
      "ry": 817,
      "Ġar": 818,
      "áº¡o": 819,
      "ĠÄĳá»Ļng": 820,
      "ind": 821,
      "Ġráº±ng": 822,
      "Ġwhat": 823,
      "ll": 824,
      "áº£o": 825,
      "og": 826,
      "Ġli": 827,
      "Ġabout": 828,
      "ĠmÃ¬nh": 829,
      "Ġmuá»ĳn": 830,
      "ĠcÃ¡ch": 831,
      "Ġout": 832,
      "pl": 833,
      "Ġáº¥y": 834,
      "áº©": 835,
      "ary": 836,
      "Ġquan": 837,
      "ime": 838,
      "áº¯n": 839,
      "á»Łi": 840,
      "Ġhiá»ĩn": 841,
      "ĠSh": 842,
      "ĠÄĳá»ģ": 843,
      "á»ĳng": 844,
      "ĠnÃło": 845,
      "áº·t": 846,
      "Ã´n": 847,
      "Ġquy": 848,
      "ure": 849,
      "Ã¢m": 850,
      "ĠnhÆ°ng": 851,
      "Ġthu": 852,
      "der": 853,
      "ĠcÃ²n": 854,
      "Ġná»¯": 855,
      "ĠÄĳá»ĵ": 856,
      "Æ°á»£ng": 857,
      "ub": 858,
      "ated": 859,
      "Ġhas": 860,
      "Æ°á»Ł": 861,
      "áº«n": 862,
      "ĠvÃ¬": 863,
      "ink": 864,
      "se": 865,
      "ach": 866,
      "Ġthere": 867,
      "Æ°á»Łng": 868,
      "Ã¡p": 869,
      "áº£ng": 870,
      "Ġhad": 871,
      "ew": 872,
      "Ġrá»ĵi": 873,
      "Ġup": 874,
      "Ġsao": 875,
      "Ġsá»Ń": 876,
      "ĠphÃ¡t": 877,
      "áº»": 878,
      "'m": 879,
      "ue": 880,
      "á»§": 881,
      "ĠWe": 882,
      "iz": 883,
      "ial": 884,
      "Ġ4": 885,
      "Ã²ng": 886,
      "),": 887,
      "ĠcÃ¡i": 888,
      "ĠcÃ¹ng": 889,
      "ge": 890,
      "iá»ĥu": 891,
      "ÌĢ": 892,
      "ff": 893,
      "Ġthá»Ŀi": 894,
      "Ġwho": 895,
      "Ġdá»¥ng": 896,
      "áº¡t": 897,
      "Ġwhich": 898,
      "Ġtheo": 899,
      "Ġ5": 900,
      "Ġhai": 901,
      "ther": 902,
      "Ġráº¥t": 903,
      "Ġman": 904,
      "ĠQ": 905,
      "Ġcuá»Ļc": 906,
      "Ġjust": 907,
      "ĠnhÃ¢n": 908,
      "ice": 909,
      "Ã¡nh": 910,
      "ov": 911,
      "Ġthá»±c": 912,
      "ions": 913,
      "Ġint": 914,
      "Ġshe": 915,
      "Ã¡ch": 916,
      "áº¥p": 917,
      "Ġlike": 918,
      "ĠthÃ¬": 919,
      "iá»ĥn": 920,
      "áº¥n": 921,
      "so": 922,
      "Ġkho": 923,
      "irst": 924,
      "cc": 925,
      "ĠhÃłnh": 926,
      "áº¥u": 927,
      "Anh": 928,
      "Æ°ng": 929,
      "á»ķi": 930,
      "ĠtrÆ°á»Ľc": 931,
      "ĠÄĳá»ĭnh": 932,
      "Ġbá»Łi": 933,
      "Ġká»": 934,
      "á»±c": 935,
      "per": 936,
      "ib": 937,
      "aus": 938,
      "Ġxu": 939,
      "ĠPh": 940,
      "Äĥn": 941,
      "áº¹": 942,
      "Ġtá»Ľi": 943,
      "ob": 944,
      "Ġbec": 945,
      "iá»ĥm": 946,
      "Ġbá»Ļ": 947,
      "ose": 948,
      "Ġlá»Ľ": 949,
      "Ġdon": 950,
      "iá»ĩt": 951,
      "á»¥c": 952,
      "ip": 953,
      "Ġget": 954,
      "Ġbeen": 955,
      "ĠnháºŃn": 956,
      "ĠhÃ¬nh": 957,
      "Ġhim": 958,
      "ace": 959,
      "Ġbáº£n": 960,
      "Ġgiá»Ŀ": 961,
      "Ġtá»±": 962,
      "aw": 963,
      "Ġgiá»Ľi": 964,
      "VÃł": 965,
      "Ġbao": 966,
      "iá»ħ": 967,
      "Ġchuyá»ĩn": 968,
      "Ġwant": 969,
      "Ġwould": 970,
      "Ġag": 971,
      "ĠSo": 972,
      "á»£p": 973,
      "Ġsome": 974,
      "Ġbáº±ng": 975,
      "wo": 976,
      "Ġpe": 977,
      "Ġwill": 978,
      "âĢĵ": 979,
      "ical": 980,
      "Ġ18": 981,
      "Ġco": 982,
      "age": 983,
      "ĠcáºŃu": 984,
      "Ġgr": 985,
      "Ġcont": 986,
      "áº¡c": 987,
      "Ġtheir": 988,
      "Ġfirst": 989,
      "ĠnÆ°á»Ľc": 990,
      "ĠváºŃy": 991,
      "ord": 992,
      "ah": 993,
      "ven": 994,
      "Ġthem": 995,
      "Ġhá»£p": 996,
      "Ġbáº¯t": 997,
      "Ġtime": 998,
      "Ġlá»Ľn": 999,
      "Ġqua": 1000,
      "Ġcáº§n": 1001,
      "Ġim": 1002,
      "Ġcá»©": 1003,
      "ĠviÃªn": 1004,
      "á»«": 1005,
      "ChÃºng": 1006,
      "Ġyear": 1007,
      "Ġxuáº¥t": 1008,
      "Ġtrá»Ł": 1009,
      "fter": 1010,
      "Ġma": 1011,
      "áº¡ng": 1012,
      "Ã¬m": 1013,
      "ign": 1014,
      "ence": 1015,
      "ĠNh": 1016,
      "Ġsinh": 1017,
      "Ġlu": 1018,
      "own": 1019,
      "á»ĭch": 1020,
      "Ġpart": 1021,
      "Ġhere": 1022,
      "Ġalso": 1023,
      "Ġchiáº¿n": 1024,
      "Ġany": 1025,
      "ĠlÃªn": 1026,
      "Ġthink": 1027,
      "Ġmore": 1028,
      "ople": 1029,
      "ĠnÃªn": 1030,
      "Ġkáº¿t": 1031,
      "ĠtiÃªn": 1032,
      "ount": 1033,
      "port": 1034,
      "ond": 1035,
      "Ġif": 1036,
      "eth": 1037,
      "Ġcl": 1038,
      "Ġ6": 1039,
      "Ġdá»±": 1040,
      "Ġquá»ĳc": 1041,
      "Ġpháº§n": 1042,
      "ase": 1043,
      "ens": 1044,
      "ĠtÃªn": 1045,
      "Ġgiá»¯": 1046,
      "pt": 1047,
      "Ġad": 1048,
      "iá»ĩm": 1049,
      "Ġwhen": 1050,
      "act": 1051,
      "Ġinc": 1052,
      "ĠÄĳá»ĵng": 1053,
      "ĠAr": 1054,
      "ĠÄĳo": 1055,
      "ays": 1056,
      "ire": 1057,
      "á»ıi": 1058,
      "ause": 1059,
      "!\",\"": 1060,
      "Ng": 1061,
      "ance": 1062,
      "mer": 1063,
      "ĠtÃ¬m": 1064,
      "Ġtiáº¿p": 1065,
      "Ġno": 1066,
      "hÃ´ng": 1067,
      "pr": 1068,
      "fer": 1069,
      "ru": 1070,
      "Ġsá»ĳng": 1071,
      "Ã¡y": 1072,
      "ĠhÃłng": 1073,
      "ĠThis": 1074,
      "iá»ģn": 1075,
      "itt": 1076,
      "Ġvá»ĭ": 1077,
      "Ì£": 1078,
      "ĠphÃŃ": 1079,
      "oll": 1080,
      "uá»ĳc": 1081,
      "Ġ199": 1082,
      "Ġmá»Ľi": 1083,
      "ĠlÃ½": 1084,
      "ult": 1085,
      "orm": 1086,
      "ile": 1087,
      "Ġtá»ĳ": 1088,
      "ĠcÆ¡": 1089,
      "are": 1090,
      "Ġrec": 1091,
      "Ġwork": 1092,
      "ater": 1093,
      "Ġres": 1094,
      "Ġtin": 1095,
      "á»Ļng": 1096,
      "ne": 1097,
      "iá»ħn": 1098,
      "Ĺi": 1099,
      "ree": 1100,
      "ations": 1101,
      "Ġdid": 1102,
      "ĠBut": 1103,
      "Ġhoáº·c": 1104,
      "Ġother": 1105,
      "NÃ³": 1106,
      "ĠtrÆ°á»Ŀng": 1107,
      "ĠtrÃ¬nh": 1108,
      "ark": 1109,
      "Ġever": 1110,
      "Ġgá»įi": 1111,
      "na": 1112,
      "ĠÃ": 1113,
      "Ġ10": 1114,
      "Ġper": 1115,
      "ory": 1116,
      "Ġgiáº£i": 1117,
      "ĠAl": 1118,
      "ath": 1119,
      "ĠÄĳá»ķ": 1120,
      "ĠthÆ°á»Ŀng": 1121,
      "Ġover": 1122,
      "ite": 1123,
      ".\\\"": 1124,
      "Ġsa": 1125,
      "Ġright": 1126,
      "Ġná»¯a": 1127,
      "Ġpeople": 1128,
      "Ġtu": 1129,
      "ĠUn": 1130,
      "oy": 1131,
      "land": 1132,
      "!\"}": 1133,
      "Ġ7": 1134,
      "ĠFr": 1135,
      "'ll": 1136,
      "Ġits": 1137,
      "á»ĥn": 1138,
      "Ġtwo": 1139,
      "Ġthan": 1140,
      "Ġbr": 1141,
      "Ġtáº¡o": 1142,
      "uyÃªn": 1143,
      "Ġhay": 1144,
      "CÃ¡c": 1145,
      "ings": 1146,
      "000": 1147,
      "Ġtáº¿": 1148,
      "Ġngo": 1149,
      "Ġen": 1150,
      "Ġdis": 1151,
      "Ġláº§n": 1152,
      "tern": 1153,
      "Ġkhu": 1154,
      "iá»ĩp": 1155,
      "á»įn": 1156,
      "Ġthá»ĳng": 1157,
      "du": 1158,
      "ĠquÃ¢n": 1159,
      "Ġtá»ķ": 1160,
      "ĠláºŃp": 1161,
      "ĠtÃŃnh": 1162,
      "Ġvá»¥": 1163,
      "Ġmu": 1164,
      "ĠthÃ´ng": 1165,
      "old": 1166,
      "ĠváºŃt": 1167,
      "Ġoff": 1168,
      "á»©c": 1169,
      "'ve": 1170,
      "ĠÄĳá»ĳi": 1171,
      "Ġbu": 1172,
      "Ġact": 1173,
      "ĠlÆ°á»£ng": 1174,
      "ade": 1175,
      "Ġcomp": 1176,
      "iver": 1177,
      "ĠÄĳáº¡i": 1178,
      "oss": 1179,
      "Ġnhau": 1180,
      "iÃªu": 1181,
      "Ġchá»§": 1182,
      "Ġnow": 1183,
      "Ġinto": 1184,
      "Ġapp": 1185,
      "ĠShe": 1186,
      "Trong": 1187,
      "Ġ8": 1188,
      "ition": 1189,
      "Ġgian": 1190,
      "ĠdÃ¢n": 1191,
      "Má»Ļt": 1192,
      "Ġrel": 1193,
      "ft": 1194,
      "man": 1195,
      "NhÆ°ng": 1196,
      "Ġhá»ĩ": 1197,
      "Ã³a": 1198,
      "Ķng": 1199,
      "Ġhá»Ļi": 1200,
      "Ġcould": 1201,
      "other": 1202,
      "Ġsee": 1203,
      "iss": 1204,
      "Ġtiáº¿ng": 1205,
      "ĠÃ½": 1206,
      "ĠMar": 1207,
      "Ġour": 1208,
      "Ġbet": 1209,
      "ĠnhiÃªn": 1210,
      "ild": 1211,
      "ric": 1212,
      "Ġonly": 1213,
      "Ã³ng": 1214,
      "orn": 1215,
      "Ġchiáº¿": 1216,
      "ĠÄĳÃ¢u": 1217,
      ").\"}": 1218,
      "Ġte": 1219,
      "áº¡nh": 1220,
      "Å©": 1221,
      "ĠnÆ¡i": 1222,
      "uá»ĳi": 1223,
      "Ãºt": 1224,
      "Ġsc": 1225,
      "ery": 1226,
      "áº£nh": 1227,
      "Ġgot": 1228,
      "we": 1229,
      "Ġmá»įi": 1230,
      "ĠtoÃłn": 1231,
      "amp": 1232,
      "Ġ9": 1233,
      "ely": 1234,
      "Ãªu": 1235,
      "oth": 1236,
      "ĠmÃ¡y": 1237,
      "ates": 1238,
      "ĠAnh": 1239,
      "ĠnÄĥng": 1240,
      "CÃ³": 1241,
      "á»ĩnh": 1242,
      "Ġmáº·t": 1243,
      "Ġbá»ĳ": 1244,
      "Ġser": 1245,
      "ĠbÃł": 1246,
      "Ġhow": 1247,
      "ĠHo": 1248,
      "Ġneed": 1249,
      "áº¯ng": 1250,
      "Ġel": 1251,
      "Ġnáº¿u": 1252,
      "int": 1253,
      "áº£y": 1254,
      "Ġcao": 1255,
      "Ġsáº£n": 1256,
      "...\"}": 1257,
      "oc": 1258,
      "Ã¡m": 1259,
      "ĠThey": 1260,
      "Ġafter": 1261,
      "ĠÄĳá»ķi": 1262,
      "ĠphÃŃa": 1263,
      "Ġváº«n": 1264,
      "ĠÄĳÆ°á»Ŀng": 1265,
      "uyá»ģn": 1266,
      "ents": 1267,
      "ev": 1268,
      "Ġdiá»ħn": 1269,
      "ife": 1270,
      "ied": 1271,
      "Ġwhere": 1272,
      "Ġai": 1273,
      "Ġbáº£o": 1274,
      "ons": 1275,
      "ors": 1276,
      "Ġtáº¥t": 1277,
      "ood": 1278,
      "Ã¡u": 1279,
      "Ġtrá»ĭ": 1280,
      "Ġloáº¡i": 1281,
      "Ġthay": 1282,
      "Ġtá»ĳt": 1283,
      "urn": 1284,
      "Ġcall": 1285,
      "Ġthen": 1286,
      "ĠliÃªn": 1287,
      "ank": 1288,
      "ĠquÃ¡": 1289,
      "ÃĶng": 1290,
      "á»Ń": 1291,
      "able": 1292,
      "Ġlá»±c": 1293,
      "Ġnew": 1294,
      "ĠÄĳá»Ļi": 1295,
      "KhÃ´ng": 1296,
      "Ġunder": 1297,
      "ph": 1298,
      "ational": 1299,
      "Ġam": 1300,
      "ĠBr": 1301,
      "áº³": 1302,
      "á»ī": 1303,
      "Æ°á»Ľi": 1304,
      "ited": 1305,
      "ember": 1306,
      "ĠtÃ¢m": 1307,
      "Ġdes": 1308,
      "Ġyears": 1309,
      "Ġthá»©c": 1310,
      "Ġchá»©c": 1311,
      "Ġthese": 1312,
      "ĠLe": 1313,
      "ĠNo": 1314,
      "Ġgoing": 1315,
      "ĠtháºŃt": 1316,
      "Ġcáº§u": 1317,
      "ĠThat": 1318,
      "Ġtuy": 1319,
      "Ġcomm": 1320,
      "á»ĵm": 1321,
      "alk": 1322,
      "á»©ng": 1323,
      "...\",\"": 1324,
      "ĠÄĳiá»ĥm": 1325,
      "Ġchuyá»ĥn": 1326,
      "19": 1327,
      "Ġtrung": 1328,
      "Ãªm": 1329,
      "anc": 1330,
      "Ġquyá»ģn": 1331,
      "ĠtÃ¡c": 1332,
      "Ġevery": 1333,
      "ĠthÃŃch": 1334,
      "CÃ´": 1335,
      ").\",\"": 1336,
      "Ġ12": 1337,
      "ĠhÃ³a": 1338,
      "Ġmost": 1339,
      "á»įng": 1340,
      "ĠchÆ°a": 1341,
      "Ġfe": 1342,
      "io": 1343,
      "ĠX": 1344,
      "ĠWhat": 1345,
      "ĠPr": 1346,
      "Ġgá»ĵm": 1347,
      "áº·p": 1348,
      "Ã¬n": 1349,
      "les": 1350,
      "Ġthr": 1351,
      "Ġbáº¥t": 1352,
      "á»¹": 1353,
      "Ìī": 1354,
      "Ġlook": 1355,
      "Ġcáº£m": 1356,
      "uring": 1357,
      "Ġthá»ĭ": 1358,
      "Ãłu": 1359,
      "Ġtrá»įng": 1360,
      "Ã£y": 1361,
      "Ġ198": 1362,
      "Ġchá»©": 1363,
      "Ġsom": 1364,
      "ĠQuá»ĳc": 1365,
      "ĠNew": 1366,
      "vel": 1367,
      "Ġmay": 1368,
      "Ãºp": 1369,
      "ĠÄĳÆ°a": 1370,
      "wn": 1371,
      "á»Ľ": 1372,
      "lud": 1373,
      "Ġ--": 1374,
      "ious": 1375,
      "ail": 1376,
      "az": 1377,
      "Ġtranh": 1378,
      "Ġthiáº¿t": 1379,
      "ĠsÄ©": 1380,
      "ĠÄĳáº¥y": 1381,
      "ĠIs": 1382,
      "Ġcuá»ĳi": 1383,
      "Ġty": 1384,
      "Ġbiá»ĩt": 1385,
      "Ġcá»©u": 1386,
      "á»Ŀi": 1387,
      "Ġcáº¥p": 1388,
      "Æ°á»Ľng": 1389,
      "Ġnay": 1390,
      "áº³ng": 1391,
      "ĠAn": 1392,
      "Ġáº£nh": 1393,
      "elf": 1394,
      "Ġsy": 1395,
      "Ġphá»ĳ": 1396,
      "ĳng": 1397,
      "áº©n": 1398,
      "ction": 1399,
      "Ġgiáº£": 1400,
      "ug": 1401,
      "Ġcháº¿t": 1402,
      "Ã©p": 1403,
      "Ġsup": 1404,
      "Ġ194": 1405,
      "ĠZ": 1406,
      "Ġba": 1407,
      "ved": 1408,
      "Ġsay": 1409,
      "Ġthá»§": 1410,
      "fore": 1411,
      "áº¡m": 1412,
      "Ġhel": 1413,
      "Ġbay": 1414,
      "Ġsec": 1415,
      "ĠtáºŃp": 1416,
      "Ġbá»ı": 1417,
      "outh": 1418,
      "Ġvá»±c": 1419,
      "Ġagain": 1420,
      "ina": 1421,
      "Ġcr": 1422,
      "Ġfl": 1423,
      "ased": 1424,
      "Ġway": 1425,
      "ced": 1426,
      "oh": 1427,
      "ĠnghÄ©a": 1428,
      "ought": 1429,
      "Ġpre": 1430,
      "ĠchÆ¡i": 1431,
      "ĠyÃªu": 1432,
      "ĠÄĥ": 1433,
      "áº©m": 1434,
      "Ġgiá»¯a": 1435,
      "Ġphim": 1436,
      "ĠAs": 1437,
      "ince": 1438,
      "Ã¨": 1439,
      "áº§m": 1440,
      "Ġvery": 1441,
      "ĠgiÃ¡o": 1442,
      "ather": 1443,
      "Ġworld": 1444,
      "reat": 1445,
      "ble": 1446,
      "ĠNg": 1447,
      "ĠcÃ¢u": 1448,
      "ĠbÃ¡o": 1449,
      "Ġmake": 1450,
      "Ġkhoáº£ng": 1451,
      "ont": 1452,
      "olog": 1453,
      "Ġchu": 1454,
      "form": 1455,
      "Ġbecause": 1456,
      "ily": 1457,
      "Ġcá»Ń": 1458,
      "ĠphÃ¢n": 1459,
      "Ġrem": 1460,
      "Ġtriá»ĥn": 1461,
      "ĠÄĥn": 1462,
      "ook": 1463,
      "ually": 1464,
      "ĠThere": 1465,
      "áº¡ch": 1466,
      "gan": 1467,
      "ett": 1468,
      "ĠbÃªn": 1469,
      "Ġ15": 1470,
      "ave": 1471,
      "als": 1472,
      "Ġnghiá»ĩp": 1473,
      "áº±m": 1474,
      "ĠÄĳá»ģu": 1475,
      "Ġ.\"}": 1476,
      "ĠtÃ¬nh": 1477,
      "ĠngoÃłi": 1478,
      "Ġhoáº¡t": 1479,
      "Ġnam": 1480,
      "ĠlÃºc": 1481,
      "Ġused": 1482,
      "Ġgen": 1483,
      "Ġháº¿t": 1484,
      "Ġwr": 1485,
      "Ġtay": 1486,
      "Náº¿u": 1487,
      "á»«ng": 1488,
      "ĠÄĳá»ĭa": 1489,
      "Ġtiá»ģn": 1490,
      "Ġcons": 1491,
      "gr": 1492,
      "ward": 1493,
      "Ġkáº¿": 1494,
      "Ġinclud": 1495,
      "Ġ197": 1496,
      "Ã²a": 1497,
      "á»ĵn": 1498,
      "Ġtake": 1499,
      "Ġplay": 1500,
      "ĠgiÃºp": 1501,
      "Ġgáº§n": 1502,
      "Ġhiá»ĩu": 1503,
      "ubl": 1504,
      "uá»ĳng": 1505,
      "á»ĩt": 1506,
      "ĠphÃ²ng": 1507,
      "ĠHow": 1508,
      "ething": 1509,
      "ik": 1510,
      "Ġ11": 1511,
      "Ġháº¯n": 1512,
      "ower": 1513,
      "ix": 1514,
      "Ġtá»¥": 1515,
      "ĠtÆ°Æ¡ng": 1516,
      "Ġinter": 1517,
      "ĠsÃ¡ng": 1518,
      "Ġla": 1519,
      "Ġtá»«ng": 1520,
      "Ġsaid": 1521,
      "ĠthuáºŃt": 1522,
      "ĠOn": 1523,
      "ict": 1524,
      "Ġváº¥n": 1525,
      "ĠÄĳÃ¡nh": 1526,
      "ĠIf": 1527,
      "oup": 1528,
      "Ġdec": 1529,
      "Ġbiáº¿n": 1530,
      "Ġcháº¥t": 1531,
      "way": 1532,
      "ĠphÃ¡p": 1533,
      "ĠphÆ°Æ¡ng": 1534,
      "Ġtham": 1535,
      "ork": 1536,
      "Ġkinh": 1537,
      "Ġfound": 1538,
      "Ġdif": 1539,
      "ĠnhÃ¬n": 1540,
      "Ġgood": 1541,
      "ĠthÃ´i": 1542,
      "Ġthrough": 1543,
      "ĠÄĳáº¥t": 1544,
      "Ġtruyá»ģn": 1545,
      "Ġgiá»ĳng": 1546,
      "Ġcá»ĳ": 1547,
      "onna": 1548,
      "uyá»ĩn": 1549,
      "Ġxem": 1550,
      "Ġmáº¥t": 1551,
      "Ġreally": 1552,
      "ope": 1553,
      "ĠWell": 1554,
      "Ġká»³": 1555,
      "Æ°u": 1556,
      "Ġtell": 1557,
      "Ã³m": 1558,
      "Ġnhá»ı": 1559,
      "ĠsÃ¡t": 1560,
      "ool": 1561,
      "Ġgáº·p": 1562,
      "be": 1563,
      "ĠtÃłu": 1564,
      "Ġdown": 1565,
      "Ġcount": 1566,
      "ces": 1567,
      "ween": 1568,
      "Ġkhá»ıi": 1569,
      "Ġmany": 1570,
      "Ã©t": 1571,
      "Ġphá»¥": 1572,
      "Ġind": 1573,
      "ĠÄĳáº·c": 1574,
      "Ġthuá»Ļc": 1575,
      "Ġlong": 1576,
      "ĠhoÃłn": 1577,
      "ert": 1578,
      "ĠgiÃ¡": 1579,
      "ĠÄĳiá»ĩn": 1580,
      "Ġcar": 1581,
      "ĠMá»¹": 1582,
      "ident": 1583,
      "Sau": 1584,
      "ody": 1585,
      "thing": 1586,
      "ĠtrÃŃ": 1587,
      "Ġnghe": 1588,
      "Ġliá»ĩu": 1589,
      "Ph": 1590,
      "ĠdÆ°á»Ľi": 1591,
      "Ġâ": 1592,
      "Ġsomething": 1593,
      "Ġ17": 1594,
      "Ġprodu": 1595,
      "ua": 1596,
      "Ġacc": 1597,
      "ĠSe": 1598,
      ".\\\"\",\"": 1599,
      "Ġpol": 1600,
      "Ġsuch": 1601,
      "Ġ196": 1602,
      "ĠTrung": 1603,
      "Ġspec": 1604,
      "Ġwell": 1605,
      "á»©": 1606,
      "Ġnum": 1607,
      "Ġinv": 1608,
      "ise": 1609,
      "Ġcent": 1610,
      "ash": 1611,
      "á»Ĺ": 1612,
      "Ãµ": 1613,
      "ci": 1614,
      "ĠÄĳÆ¡n": 1615,
      "Ġform": 1616,
      "Ġshould": 1617,
      "Ġro": 1618,
      "áº¯m": 1619,
      "Ġtho": 1620,
      "ĠdÃ¹ng": 1621,
      "ann": 1622,
      "ĠÄĳáº¥u": 1623,
      "Ġmáº¹": 1624,
      "Ġbefore": 1625,
      "Ġdá»ĭch": 1626,
      "ier": 1627,
      "ific": 1628,
      "Ġpo": 1629,
      "Ġtá»Ń": 1630,
      "Ġreg": 1631,
      "erm": 1632,
      "Ġlá»Ŀi": 1633,
      "ĠNam": 1634,
      "Ġhapp": 1635,
      "Ġquáº£": 1636,
      "ĠsÃ¡ch": 1637,
      "ating": 1638,
      "ĠvÄĥn": 1639,
      "ĠtÆ°á»Łng": 1640,
      "ittle": 1641,
      "Ġmade": 1642,
      "ĠCom": 1643,
      "Ġhigh": 1644,
      "NÄĥm": 1645,
      "Ġdáº«n": 1646,
      "ys": 1647,
      "att": 1648,
      "ars": 1649,
      "Ġbetween": 1650,
      "Ġgonna": 1651,
      "Ġchá»ĭ": 1652,
      "ĠxÃ¡c": 1653,
      "ĠvÃłi": 1654,
      "stem": 1655,
      "ĠHoa": 1656,
      "Ġchiáº¿c": 1657,
      "Ġmang": 1658,
      "Ġlife": 1659,
      "ĠÄĳáº·t": 1660,
      "Ġend": 1661,
      "\\\",": 1662,
      "ĠbÃ¬nh": 1663,
      "ĠÄĳáº¡o": 1664,
      "Ġmuch": 1665,
      "Ġbl": 1666,
      "Ġeven": 1667,
      "ÄĲÃ¢y": 1668,
      "Ġdi": 1669,
      "ĠtÆ°": 1670,
      "ful": 1671,
      "ics": 1672,
      "Ġsm": 1673,
      "Ġsur": 1674,
      "Ġthree": 1675,
      "ĠvÃ¹ng": 1676,
      "Ġbá»ĩnh": 1677,
      "Ġstart": 1678,
      "Ġbel": 1679,
      "ities": 1680,
      "orth": 1681,
      "ĠDo": 1682,
      "Ġnháº¡c": 1683,
      "Ġac": 1684,
      "ual": 1685,
      "uc": 1686,
      "arly": 1687,
      "ĠdÃ¹": 1688,
      "ĠthÆ°Æ¡ng": 1689,
      "ĠtÄĥng": 1690,
      "Ġfam": 1691,
      "á»³": 1692,
      "air": 1693,
      "Ã¹a": 1694,
      "Ġcháº¿": 1695,
      "Nhá»¯ng": 1696,
      "Ġban": 1697,
      "meric": 1698,
      "Ġá»©ng": 1699,
      "ĠbÃłi": 1700,
      "eb": 1701,
      "ject": 1702,
      "ever": 1703,
      "hip": 1704,
      "ĠmÃ´": 1705,
      "á»Ŀ": 1706,
      "áº¡y": 1707,
      "vern": 1708,
      "Ġngay": 1709,
      "ĠvÃ´": 1710,
      "ove": 1711,
      "Ġev": 1712,
      "arg": 1713,
      "Ġsub": 1714,
      "Ġquyáº¿t": 1715,
      "ĠtÃłi": 1716,
      "ex": 1717,
      "Ġxe": 1718,
      "ÃŃt": 1719,
      "ĠtiÃªu": 1720,
      "áº¯p": 1721,
      "'d": 1722,
      "eg": 1723,
      "ek": 1724,
      "Ġ195": 1725,
      "ral": 1726,
      "Ã³c": 1727,
      "Ġpháº©m": 1728,
      "Ġ16": 1729,
      "Ġbeing": 1730,
      "ÄĲÃ³": 1731,
      "Ġnever": 1732,
      "Ġviáº¿t": 1733,
      "Ġtráº»": 1734,
      "imes": 1735,
      "ĠloÃłi": 1736,
      "ĠSp": 1737,
      "ins": 1738,
      "ĠlÃ£": 1739,
      "arl": 1740,
      "ĠâĢĵ": 1741,
      "Ġkill": 1742,
      "Ġlittle": 1743,
      "Ġdoes": 1744,
      "VÃło": 1745,
      "augh": 1746,
      "ĠKh": 1747,
      "ange": 1748,
      "red": 1749,
      "Ġtalk": 1750,
      "ows": 1751,
      "Em": 1752,
      "ern": 1753,
      "Ġhá»ıi": 1754,
      "Ġret": 1755,
      "Ġxáº£y": 1756,
      "ĠAmeric": 1757,
      "ving": 1758,
      "ĠkhÃŃ": 1759,
      "ĠFor": 1760,
      "Ġfin": 1761,
      "ĠKá»³": 1762,
      "Ġhiá»ĥu": 1763,
      "Ġká»ĥ": 1764,
      "Ġuse": 1765,
      "Ġsame": 1766,
      "Ġday": 1767,
      "ey": 1768,
      "Ġminh": 1769,
      "ĠgÃ¡i": 1770,
      "Ġláº¥y": 1771,
      "Ġdiffer": 1772,
      "Ġstud": 1773,
      "Ġchá»©ng": 1774,
      "uyáº¿t": 1775,
      "Ġtiáº¿n": 1776,
      "Ġfind": 1777,
      "co": 1778,
      "Ġca": 1779,
      "£i": 1780,
      "Ġnhiá»ĩm": 1781,
      "day": 1782,
      "Ġcome": 1783,
      "ters": 1784,
      "Ġtá»¥c": 1785,
      "ĠMay": 1786,
      "ĠÄĳÃºng": 1787,
      "Há»į": 1788,
      "Ġ'": 1789,
      "Ġown": 1790,
      "20": 1791,
      "Ġná»ķi": 1792,
      "Ġgiáº¿t": 1793,
      "Ġcol": 1794,
      "Ġmin": 1795,
      "Ġtuá»ķi": 1796,
      "Ġwon": 1797,
      "ĠbÃ¡n": 1798,
      "Ġaround": 1799,
      "ĠÃ¢m": 1800,
      "Ġhelp": 1801,
      "ivers": 1802,
      "Ġmon": 1803,
      "Ġcáº£nh": 1804,
      "ĠphÃ©p": 1805,
      "ĠnhÃ³m": 1806,
      "any": 1807,
      "Ġtrans": 1808,
      "ĠAll": 1809,
      "ĠnguyÃªn": 1810,
      "Ġthose": 1811,
      "ĠInd": 1812,
      "its": 1813,
      "Ġphá»¥c": 1814,
      "Ġloc": 1815,
      "ale": 1816,
      "Ġvi": 1817,
      "ĠAt": 1818,
      "Ġká»·": 1819,
      "ĠÄĳá»Ŀi": 1820,
      "ĠÄĳáº£o": 1821,
      "Ġphá»§": 1822,
      "Ġpop": 1823,
      "ĠGr": 1824,
      "erson": 1825,
      "Ġsystem": 1826,
      "Khi": 1827,
      "Ġnáº±m": 1828,
      "«a": 1829,
      "Ġstill": 1830,
      "á»ĵng": 1831,
      "iel": 1832,
      "Ġatt": 1833,
      "Ġlet": 1834,
      "Ġname": 1835,
      "Ġknown": 1836,
      "ĠTÃ´i": 1837,
      "Ġent": 1838,
      "Ġthing": 1839,
      "ĠthÃ¢n": 1840,
      "ĠUnited": 1841,
      "ution": 1842,
      "Ġngu": 1843,
      "ves": 1844,
      "ĠtrÃ²": 1845,
      "ull": 1846,
      "Ġduy": 1847,
      "owing": 1848,
      "Ġmáº¡nh": 1849,
      "ible": 1850,
      "Ġob": 1851,
      "ĠÄĳÃ¡ng": 1852,
      "Ġvá»ĩ": 1853,
      "oot": 1854,
      "ĠdÃłi": 1855,
      "Ìĥ": 1856,
      "Ġlast": 1857,
      "The": 1858,
      "ĠCan": 1859,
      "bum": 1860,
      "ision": 1861,
      "ady": 1862,
      "my": 1863,
      "Ġduring": 1864,
      "VáºŃy": 1865,
      "ĠchÃº": 1866,
      "ĠNow": 1867,
      "Ġcalled": 1868,
      "Ġmá»Ł": 1869,
      "Ġdef": 1870,
      "ĠII": 1871,
      "ouse": 1872,
      "Ġnghá»ĩ": 1873,
      "Ġdanh": 1874,
      "ĠtrÆ°á»Łng": 1875,
      "ium": 1876,
      "und": 1877,
      "Ġmod": 1878,
      "chool": 1879,
      "ished": 1880,
      "Ġprot": 1881,
      "uss": 1882,
      "ĠtÃŃch": 1883,
      "pect": 1884,
      "áº¡p": 1885,
      "ines": 1886,
      "ether": 1887,
      "ĠÄĳÃ¬nh": 1888,
      "ĠthÃªm": 1889,
      "oman": 1890,
      "Ġdidn": 1891,
      "ĠtÆ°á»£ng": 1892,
      "ĠluÃ´n": 1893,
      "ee": 1894,
      "Ġcap": 1895,
      "Ġtrang": 1896,
      "\\\".\"}": 1897,
      "ĠbÃ©": 1898,
      "Ġtrai": 1899,
      "Ġtoo": 1900,
      "Ġstr": 1901,
      "Ġmean": 1902,
      "Ġtháº§n": 1903,
      "apan": 1904,
      "ĠTÃ¢y": 1905,
      "ĠQu": 1906,
      "oun": 1907,
      "ular": 1908,
      "ury": 1909,
      "áº¥m": 1910,
      "Ġtinh": 1911,
      "ĠnghiÃªn": 1912,
      "yl": 1913,
      "ative": 1914,
      "ĠGi": 1915,
      "Ġsecond": 1916,
      "Ġchi": 1917,
      "Ġmá»Ĺi": 1918,
      "Ġ14": 1919,
      "ĠCon": 1920,
      "velop": 1921,
      "Ã´m": 1922,
      "Ġfil": 1923,
      "illion": 1924,
      "ting": 1925,
      "iáº¿m": 1926,
      "ĠchÃŃ": 1927,
      "\\\".\",\"": 1928,
      "ĠÃŃt": 1929,
      "Ġdevelop": 1930,
      "Ġ193": 1931,
      "Ġdist": 1932,
      "ane": 1933,
      "Ġthings": 1934,
      "uk": 1935,
      "á»ķng": 1936,
      "ron": 1937,
      "esent": 1938,
      "ton": 1939,
      "Ġ13": 1940,
      "ures": 1941,
      "ets": 1942,
      "Ã£i": 1943,
      "Ġgiao": 1944,
      "ĠnháºŃp": 1945,
      "ĠMy": 1946,
      "Ġbiá»ĥn": 1947,
      "ae": 1948,
      "Ġngá»¯": 1949,
      "ĠgÃ¢y": 1950,
      "Ġviá»ĩn": 1951,
      "Ġhá»Ļ": 1952,
      "ĠbÃ³ng": 1953,
      "Ġplace": 1954,
      "Ġtráº£": 1955,
      "arch": 1956,
      "ake": 1957,
      "Ġcung": 1958,
      "ĠÃł": 1959,
      "Ġcá»Ļng": 1960,
      "inn": 1961,
      "Ġthi": 1962,
      "Ġchá»įn": 1963,
      "Ġtra": 1964,
      "Ġcá»ķ": 1965,
      "Ġnumber": 1966,
      "ĠÄĲáº¡i": 1967,
      "Ġwar": 1968,
      "ept": 1969,
      "Ġnghiá»ĩm": 1970,
      "self": 1971,
      "Ġdá»±ng": 1972,
      "Ġair": 1973,
      "ublic": 1974,
      "Ġ30": 1975,
      "til": 1976,
      "Ġtriá»ĩu": 1977,
      "á»±a": 1978,
      "ĠchÆ°Æ¡ng": 1979,
      "Ġsá»Ł": 1980,
      "áº§y": 1981,
      "ĠEm": 1982,
      "Ġreal": 1983,
      "eral": 1984,
      "ĠJapan": 1985,
      "ason": 1986,
      "\":\"\\\"": 1987,
      "Ġháº¡n": 1988,
      "á»ħ": 1989,
      "ĠtráºŃn": 1990,
      "Ġrá»Ļng": 1991,
      "Ġfoll": 1992,
      "Ġyáº¿u": 1993,
      "Ġxuá»ĳng": 1994,
      "ism": 1995,
      "Ġlater": 1996,
      "ĠâĢ": 1997,
      "pen": 1998,
      "Ġhand": 1999,
      "ene": 2000,
      "Ġmá»¥c": 2001,
      "Ġsign": 2002,
      "Ġins": 2003,
      "rib": 2004,
      "ĠÃ¡n": 2005,
      "ox": 2006,
      "įng": 2007,
      "ĠxÃ¢y": 2008,
      "Ġgovern": 2009,
      "Æ°Æ¡i": 2010,
      "Ġcre": 2011,
      "Ġdiá»ĩn": 2012,
      "ĠhÆ°á»Ľng": 2013,
      "ĠBe": 2014,
      "ĠNháºŃt": 2015,
      "erg": 2016,
      "Ġbiá»ĥu": 2017,
      "eah": 2018,
      "Con": 2019,
      "Ġwhile": 2020,
      "ĠphÃ¡": 2021,
      "ying": 2022,
      "ĠÄĳÃ´": 2023,
      "ĠchÃ¢u": 2024,
      "Ġgu": 2025,
      "els": 2026,
      "Ġlá»ĭch": 2027,
      "Ġthought": 2028,
      "orld": 2029,
      "ĠÄĳÃ³ng": 2030,
      "Ġtá»ĳi": 2031,
      "iÃªng": 2032,
      "xt": 2033,
      "Ġask": 2034,
      "Ġdr": 2035,
      "Ġboth": 2036,
      "Ġhum": 2037,
      "Ġguy": 2038,
      "Ġtá»ķng": 2039,
      ".\\\"\"}": 2040,
      "Ġuntil": 2041,
      "pos": 2042,
      "Ġbre": 2043,
      "ĠJoh": 2044,
      "Ġext": 2045,
      "cy": 2046,
      "Ġláº½": 2047,
      "ized": 2048,
      "Ġkháº£": 2049,
      "CáºŃu": 2050,
      "Ġchild": 2051,
      "ĠÄĲá»©c": 2052,
      "Ġcity": 2053,
      "Ġalbum": 2054,
      "Ġrele": 2055,
      "arr": 2056,
      "ital": 2057,
      "ists": 2058,
      "Ġdifferent": 2059,
      "ĠluáºŃt": 2060,
      "ĠCl": 2061,
      "une": 2062,
      "Ġláº¡c": 2063,
      "Ġthuyáº¿t": 2064,
      "Ġsing": 2065,
      "ĠmÃ¹a": 2066,
      "Ġinst": 2067,
      "Ġtak": 2068,
      "Ġmet": 2069,
      "Ġpháº£n": 2070,
      "Ġcha": 2071,
      "cept": 2072,
      "Ãłm": 2073,
      "pe": 2074,
      "ĠÄĳoÃłn": 2075,
      "ĠOr": 2076,
      "Tuy": 2077,
      "áº«u": 2078,
      "Ġwhy": 2079,
      "ober": 2080,
      "Ġnguá»ĵn": 2081,
      "īnh": 2082,
      "ered": 2083,
      "Ġsim": 2084,
      "Ġinf": 2085,
      "Ġcháº¯c": 2086,
      "ĠWhen": 2087,
      "Ġbecame": 2088,
      "Ta": 2089,
      "«ng": 2090,
      "erman": 2091,
      "ĠkhÃ³": 2092,
      "Ġtrá»£": 2093,
      "ĠÄĳá»§": 2094,
      "Ġfour": 2095,
      "ĠhÃ¡t": 2096,
      "err": 2097,
      "Ġold": 2098,
      "ĠPhÃ¡p": 2099,
      "Ġhy": 2100,
      "Ġshow": 2101,
      "Ġbelie": 2102,
      "Ġput": 2103,
      "ived": 2104,
      "con": 2105,
      "Ġgroup": 2106,
      "ĠÄĳÃ´ng": 2107,
      "Ġlead": 2108,
      "Ġadd": 2109,
      "ĠthÆ°": 2110,
      "ott": 2111,
      "ister": 2112,
      "Ġart": 2113,
      "Ġfamily": 2114,
      "Ġsong": 2115,
      "Ġtá»ĵ": 2116,
      "ĠlÃ¢u": 2117,
      "ames": 2118,
      "iend": 2119,
      "Ġhead": 2120,
      "Ġvai": 2121,
      "ility": 2122,
      "ract": 2123,
      "ient": 2124,
      "ined": 2125,
      "ĠWorld": 2126,
      "áº¹p": 2127,
      "Ġcare": 2128,
      "ways": 2129,
      "ĠhÆ°á»Łng": 2130,
      "Ġperson": 2131,
      "ement": 2132,
      "Ġfriend": 2133,
      "ĠCol": 2134,
      "ĠAm": 2135,
      "Ġmus": 2136,
      "ĠváºŃn": 2137,
      "aughter": 2138,
      "eep": 2139,
      "ĠÄĳá»Ļc": 2140,
      "Ġkáº»": 2141,
      "Ġáº": 2142,
      "Ġgiáº£m": 2143,
      "irect": 2144,
      "Ġmáº¡ng": 2145,
      "ĠPro": 2146,
      "Ġfilm": 2147,
      "Ġgame": 2148,
      "inc": 2149,
      "ĠAd": 2150,
      "ren": 2151,
      "Ġ0": 2152,
      "aking": 2153,
      "iáº¿ng": 2154,
      "Ġtre": 2155,
      "Ġmed": 2156,
      "Ġtuáº§n": 2157,
      "Ġgive": 2158,
      "Ġdáº¡ng": 2159,
      "Ġeff": 2160,
      "VÃ¬": 2161,
      "ĠEur": 2162,
      "Ġgreat": 2163,
      "kay": 2164,
      "Ġchá»ĳng": 2165,
      "ird": 2166,
      "NgÆ°á»Ŀi": 2167,
      "Ġelect": 2168,
      "Ġnhá»Ľ": 2169,
      "Ġprov": 2170,
      "Ġhome": 2171,
      "enn": 2172,
      "ax": 2173,
      "Ġmain": 2174,
      "uth": 2175,
      "ĠLiÃªn": 2176,
      "Ġmust": 2177,
      "ĠthÃºc": 2178,
      "Ġ25": 2179,
      "ĠBáº¯c": 2180,
      "ams": 2181,
      "ĠAfter": 2182,
      "Ġkiá»ĩn": 2183,
      "ĠvÅ©": 2184,
      "ĠÄĳa": 2185,
      "ĠsÆ°": 2186,
      "Ġhappen": 2187,
      "oney": 2188,
      "Ġkiáº¿n": 2189,
      "ara": 2190,
      "Ġpower": 2191,
      "Ġwater": 2192,
      "ĠGu": 2193,
      "Ã£o": 2194,
      "Ġcá»Ńa": 2195,
      "Ġmáº¯t": 2196,
      "ĠAf": 2197,
      "Ġsá»©c": 2198,
      "Ġcháº³ng": 2199,
      "ague": 2200,
      "ĠJohn": 2201,
      "chn": 2202,
      "Ġanother": 2203,
      "ically": 2204,
      "Äĳ": 2205,
      "Ġsl": 2206,
      "arm": 2207,
      "Ġgovernment": 2208,
      "Ġkind": 2209,
      "ĠxÃ£": 2210,
      "Ġeach": 2211,
      "Ġchung": 2212,
      "Ġest": 2213,
      "Ġrun": 2214,
      "ui": 2215,
      "Ġcá»¥": 2216,
      "Ġtá»Ľ": 2217,
      "ĠrÃµ": 2218,
      "Ġlá»Ĺi": 2219,
      "Ġsince": 2220,
      "ĠSouth": 2221,
      "ural": 2222,
      "ĠLan": 2223,
      "Ġimport": 2224,
      "arth": 2225,
      "Ġkhoa": 2226,
      "ained": 2227,
      "Ġleft": 2228,
      "ĠkÃ½": 2229,
      "ently": 2230,
      "ĠlÃ£nh": 2231,
      "ĠcÆ°": 2232,
      "Ġkiá»ĥm": 2233,
      "ains": 2234,
      "\\\\": 2235,
      "Ġtháº¯ng": 2236,
      "Ġmov": 2237,
      "Ġagainst": 2238,
      "ĠOh": 2239,
      "á»įc": 2240,
      "omen": 2241,
      "áº·ng": 2242,
      "ĠngÃ´i": 2243,
      "ÄĲiá»ģu": 2244,
      "ama": 2245,
      "Ġoper": 2246,
      "aph": 2247,
      "ĠchÃ¡u": 2248,
      "ari": 2249,
      "ives": 2250,
      "Ġ2011": 2251,
      "ĠÄĳÃ¡": 2252,
      "Ġxa": 2253,
      "ĠSc": 2254,
      "inal": 2255,
      "ĠPol": 2256,
      "Ġkhiáº¿n": 2257,
      "ead": 2258,
      "ĠhÃ²a": 2259,
      "Ġlot": 2260,
      "á»Ĺi": 2261,
      "Ġcour": 2262,
      "Ġcontr": 2263,
      "sh": 2264,
      "Ġsmall": 2265,
      "ĠGo": 2266,
      "ait": 2267,
      "áºŃm": 2268,
      "ty": 2269,
      "ants": 2270,
      "Ġghi": 2271,
      "lex": 2272,
      "ĠLa": 2273,
      "Ġchá»Ĺ": 2274,
      "Ġcompl": 2275,
      "Ġtuyá»ĩt": 2276,
      "áº¿p": 2277,
      "ology": 2278,
      "áº£m": 2279,
      "ten": 2280,
      "á»ĳn": 2281,
      "ĠcÃ¡o": 2282,
      "ield": 2283,
      "Ġ2010": 2284,
      "ize": 2285,
      "Ġmil": 2286,
      "ĠriÃªng": 2287,
      "ially": 2288,
      "Ġimp": 2289,
      "ĠhÃ£y": 2290,
      "ĠYork": 2291,
      "Ġfather": 2292,
      "ĠcÃ¢y": 2293,
      "á»§ng": 2294,
      "ĠlÆ°u": 2295,
      "10": 2296,
      "iÃªm": 2297,
      "ipp": 2298,
      "Ġbus": 2299,
      "Ġ2015": 2300,
      "ĠÃĤ": 2301,
      "Ġschool": 2302,
      "ĠUS": 2303,
      "Ġ2014": 2304,
      "ĠmÃły": 2305,
      "ley": 2306,
      "arge": 2307,
      "iáº¿u": 2308,
      "aul": 2309,
      "Ġlove": 2310,
      "orr": 2311,
      "iversity": 2312,
      "ĠÄĳoáº¡n": 2313,
      "uh": 2314,
      "ike": 2315,
      "Ġmáº·c": 2316,
      "Ġoffic": 2317,
      "Ãºi": 2318,
      "Ġthuá»ĳc": 2319,
      "Ġlá»ĩ": 2320,
      "Ġ2012": 2321,
      "cent": 2322,
      "Ġdesign": 2323,
      "Åį": 2324,
      "Ġ...": 2325,
      "Ġ2013": 2326,
      "18": 2327,
      "ĠJu": 2328,
      "iness": 2329,
      "Ġtook": 2330,
      "ĠvÃ²ng": 2331,
      "ulation": 2332,
      "ĠmÃłu": 2333,
      "Ġchá»ĭu": 2334,
      "Ġpoint": 2335,
      "ĠBa": 2336,
      "ature": 2337,
      "ĠEng": 2338,
      "ĠWhy": 2339,
      "ĠWar": 2340,
      "Ġdoing": 2341,
      "Ġfact": 2342,
      "Ġopen": 2343,
      "Ġ100": 2344,
      "ĠGerman": 2345,
      "Ġchia": 2346,
      "ĠStates": 2347,
      "led": 2348,
      "Ġmillion": 2349,
      "Ġthá»Ń": 2350,
      "ats": 2351,
      "ĠSy": 2352,
      "ĠÄĳÃłn": 2353,
      "ata": 2354,
      "ote": 2355,
      "Ġquay": 2356,
      "ĠchÃºt": 2357,
      "omb": 2358,
      "ĠhoÃłng": 2359,
      "Ġcur": 2360,
      "Ġchuáº©n": 2361,
      ",\"}": 2362,
      "uch": 2363,
      "Ġpartic": 2364,
      "ĠYeah": 2365,
      "Ġmá»©c": 2366,
      "ĠÄĳá»©": 2367,
      "Ġfeel": 2368,
      "ĠDon": 2369,
      "ideo": 2370,
      "ĠPl": 2371,
      "Ġreturn": 2372,
      "Ġ2008": 2373,
      "Ġaway": 2374,
      "ana": 2375,
      "Ġincluding": 2376,
      "rl": 2377,
      "Ġmua": 2378,
      "iew": 2379,
      "Ġbang": 2380,
      "ĠRe": 2381,
      "ĠÄĳÃ´i": 2382,
      "blem": 2383,
      "Ġpar": 2384,
      "amb": 2385,
      "Ġconf": 2386,
      "ĠkhÃ¡ch": 2387,
      "Ġide": 2388,
      "ĠMan": 2389,
      "Ġlá»£i": 2390,
      "ute": 2391,
      "Ġtiáº¿t": 2392,
      "Ġed": 2393,
      "á»¯u": 2394,
      "esident": 2395,
      "Ġkm": 2396,
      "ession": 2397,
      "Ġbetter": 2398,
      "Ġnight": 2399,
      "Kh": 2400,
      "Ġcountry": 2401,
      "Ġalways": 2402,
      "Ġactually": 2403,
      "Ġturn": 2404,
      "Ġstate": 2405,
      "Ġvá»įng": 2406,
      "ĠCal": 2407,
      "Ġchá»¯": 2408,
      "Ġquáº£n": 2409,
      "Ġcháº¡y": 2410,
      "ts": 2411,
      "Æ°á»£t": 2412,
      "Ġtá»ĵn": 2413,
      "ĠÃĤu": 2414,
      "Ġ2007": 2415,
      "ĠGe": 2416,
      "ĠBáº£n": 2417,
      "Ġbuild": 2418,
      "Ġorig": 2419,
      "Ġ2009": 2420,
      "á»§y": 2421,
      "Ġgh": 2422,
      "Ġquanh": 2423,
      "ĠAb": 2424,
      "Ġcontin": 2425,
      "Ġmen": 2426,
      "Ġcame": 2427,
      "jor": 2428,
      "ada": 2429,
      "ĠhÃ´n": 2430,
      "ised": 2431,
      "Ġbá»įn": 2432,
      "cial": 2433,
      "ages": 2434,
      "ĠÆ¡n": 2435,
      "Ġgirl": 2436,
      "Ġrest": 2437,
      "Ġhist": 2438,
      "ĠComm": 2439,
      "ole": 2440,
      "Ġhá»¯u": 2441,
      "Ġkiáº¿m": 2442,
      "Ġtold": 2443,
      "ĠKing": 2444,
      "Ġocc": 2445,
      "Ġxin": 2446,
      "ĠkÃ©": 2447,
      "veral": 2448,
      "Ġanything": 2449,
      "Ġprom": 2450,
      "Giá»": 2451,
      "Ġbig": 2452,
      "erv": 2453,
      "Ã³n": 2454,
      "ĠEurope": 2455,
      ",\",\"": 2456,
      "Ġfew": 2457,
      "Ġbest": 2458,
      "ĠCar": 2459,
      "Ġtá»Ļi": 2460,
      "Ġnext": 2461,
      "Ġ2006": 2462,
      "Ġtiá»ĥu": 2463,
      "Ġmight": 2464,
      "Ġkeep": 2465,
      "Ġmem": 2466,
      "Ġdirect": 2467,
      "Ġ2016": 2468,
      "ĠAmerican": 2469,
      "Ġland": 2470,
      "ided": 2471,
      "ĠMr": 2472,
      "ternational": 2473,
      "son": 2474,
      "ries": 2475,
      "Ġthanh": 2476,
      "Ġproblem": 2477,
      "ĠsÃ¢n": 2478,
      "BÃł": 2479,
      "ĠÄĳá»©ng": 2480,
      "Ġlang": 2481,
      "ĠluáºŃn": 2482,
      "ĠMal": 2483,
      "bers": 2484,
      "Ġsol": 2485,
      "ruct": 2486,
      "ĠkÃŃch": 2487,
      "ĠdÃłnh": 2488,
      "ried": 2489,
      "ison": 2490,
      "esp": 2491,
      "Ġvá»«a": 2492,
      "ugust": 2493,
      "ĠÄĳá»©a": 2494,
      "wh": 2495,
      "ared": 2496,
      "vent": 2497,
      "Ġdu": 2498,
      "ĠEl": 2499,
      "ired": 2500,
      "rist": 2501,
      "stand": 2502,
      "Ä©nh": 2503,
      "ĠÄĳáº¹p": 2504,
      "ĠOne": 2505,
      "ĠJan": 2506,
      "Ġimportant": 2507,
      "med": 2508,
      "Ġdeath": 2509,
      "gg": 2510,
      "Ġmonth": 2511,
      "ĠPar": 2512,
      "á»Ľi": 2513,
      "ĠhÃ´m": 2514,
      "ĠháºŃu": 2515,
      "ĠcáºŃp": 2516,
      "ress": 2517,
      "ĠTo": 2518,
      "24": 2519,
      "Ġarea": 2520,
      "te": 2521,
      "Ġorgan": 2522,
      "ately": 2523,
      "Ġrecord": 2524,
      "por": 2525,
      "lor": 2526,
      "ush": 2527,
      "iam": 2528,
      "ica": 2529,
      "Ġgá»ĳc": 2530,
      "Ġdet": 2531,
      "Ġposs": 2532,
      "Ġconst": 2533,
      "Ġbáº¯c": 2534,
      "Ġdá»¥c": 2535,
      "ĠÃ¡p": 2536,
      "Ġmark": 2537,
      "Ġfun": 2538,
      "Ġpos": 2539,
      "ius": 2540,
      "Ġappear": 2541,
      "--": 2542,
      "Ġearly": 2543,
      "Ġ,": 2544,
      "ness": 2545,
      "Ãºa": 2546,
      "ĠAugust": 2547,
      "Ġbá»©c": 2548,
      "ĠCÃ´ng": 2549,
      "Ġexper": 2550,
      "ĠJust": 2551,
      "Ġkia": 2552,
      "Ġtáº£": 2553,
      "Ġstand": 2554,
      "ĠBrit": 2555,
      "ĠÄĳáº¡t": 2556,
      "Ġláº¯m": 2557,
      "Ġngoáº¡i": 2558,
      "Ġdá»ħ": 2559,
      "atter": 2560,
      "Ġred": 2561,
      "alth": 2562,
      "rop": 2563,
      "ony": 2564,
      "uá»ĳt": 2565,
      "Ġváº»": 2566,
      "cess": 2567,
      "ĠMin": 2568,
      "Ġvideo": 2569,
      "Ġhuman": 2570,
      "Ġsang": 2571,
      "Ġresult": 2572,
      "Ġtrá»±c": 2573,
      "Ġdep": 2574,
      "Ġjo": 2575,
      "Ġweek": 2576,
      "Ġexpl": 2577,
      "Ġdays": 2578,
      "oon": 2579,
      "app": 2580,
      "ĠsÃ´ng": 2581,
      "Ġcá»±c": 2582,
      "Ġtog": 2583,
      "ments": 2584,
      "Ġwithout": 2585,
      "Ġcle": 2586,
      "Ġvis": 2587,
      "Ġtogether": 2588,
      "ues": 2589,
      "Ġ24": 2590,
      "ĠEn": 2591,
      "Ã¢ng": 2592,
      "ta": 2593,
      "ense": 2594,
      "ico": 2595,
      "Ġmiss": 2596,
      "ĠAir": 2597,
      "Ġhoáº¡ch": 2598,
      "abl": 2599,
      "á»ŀ": 2600,
      "cl": 2601,
      "Ġsupport": 2602,
      "Ġnhanh": 2603,
      "78": 2604,
      "ĠÄĲÃ´ng": 2605,
      "Ġpháº¡m": 2606,
      "50": 2607,
      "alf": 2608,
      "ones": 2609,
      "ĠNorth": 2610,
      "Ġvui": 2611,
      "ball": 2612,
      "ĠÄĳÃªm": 2613,
      "ef": 2614,
      "Ġbáº§u": 2615,
      "Ġorder": 2616,
      "ench": 2617,
      "Ġhá»Ĺ": 2618,
      "Ġprogr": 2619,
      "Táº¡i": 2620,
      "ney": 2621,
      "Ġdoanh": 2622,
      "Ġstop": 2623,
      "ĠthiÃªn": 2624,
      "Ġseveral": 2625,
      "ler": 2626,
      "Ġ21": 2627,
      "Ġháº¡ng": 2628,
      "very": 2629,
      "ccess": 2630,
      "ience": 2631,
      "Ġsuy": 2632,
      "Ġdel": 2633,
      "Ġequ": 2634,
      "Ġkhai": 2635,
      "ĠOct": 2636,
      "aining": 2637,
      "Ġnghá»ĭ": 2638,
      "ety": 2639,
      "HÃ£y": 2640,
      "Ġword": 2641,
      "Ġpolit": 2642,
      "Ġcoi": 2643,
      "Ġxá»Ń": 2644,
      "Ġbegan": 2645,
      "Ġmove": 2646,
      "Ġmoney": 2647,
      "Ġtrá»Ŀi": 2648,
      "Ġ50": 2649,
      "ĠSan": 2650,
      "ĠPhi": 2651,
      "ĠngÃ´n": 2652,
      "ĠtrÃ¡i": 2653,
      "Ġtao": 2654,
      "Ġná»Ļi": 2655,
      "ices": 2656,
      "ĠngÃłi": 2657,
      "ĠÆ°á»Ľc": 2658,
      "ĠbÃ¢y": 2659,
      "Ġgl": 2660,
      "ÃŃn": 2661,
      "ĠDec": 2662,
      "ĠbÃłn": 2663,
      "Ġvua": 2664,
      "ĠtoÃ¡n": 2665,
      "ma": 2666,
      "Ġbáº¯n": 2667,
      "Ġwanted": 2668,
      "ured": 2669,
      "raz": 2670,
      "Ġná»ģn": 2671,
      "Æ°á»¡": 2672,
      "Ġcu": 2673,
      "Ġbuá»ķi": 2674,
      "Ġphong": 2675,
      "lated": 2676,
      "ret": 2677,
      "Ġreleased": 2678,
      "Ġháº§u": 2679,
      "ĠHer": 2680,
      "Ġmar": 2681,
      "Ġlarg": 2682,
      "uary": 2683,
      "Ġann": 2684,
      "Ġcommun": 2685,
      "ĠEd": 2686,
      "NgÃły": 2687,
      "Ġconsid": 2688,
      "lease": 2689,
      "ĠPhil": 2690,
      "Ġtechn": 2691,
      "vers": 2692,
      "ĠThÃ¡i": 2693,
      "by": 2694,
      "Ġsá»£": 2695,
      "Ġwent": 2696,
      "Ġlist": 2697,
      "Ġteam": 2698,
      "ĠHar": 2699,
      "Ġchiáº¿m": 2700,
      "Ġref": 2701,
      "Ġhuy": 2702,
      "Ġserv": 2703,
      "Ġtá»Ļc": 2704,
      "Ġtoday": 2705,
      "ior": 2706,
      "ĠAfric": 2707,
      "yle": 2708,
      "Ġlive": 2709,
      "Ġmáº¥y": 2710,
      "Ġká»¹": 2711,
      "Ġterm": 2712,
      "Ġleg": 2713,
      "ales": 2714,
      "ĠBar": 2715,
      "Ġspe": 2716,
      "conom": 2717,
      "urg": 2718,
      "áºµ": 2719,
      "ĠthÃº": 2720,
      "Ġmá»ĳi": 2721,
      "Ġmajor": 2722,
      "Ġset": 2723,
      "Ġ2017": 2724,
      "esc": 2725,
      "lect": 2726,
      "Ġplan": 2727,
      "Ġphá»ķ": 2728,
      "Ġ192": 2729,
      "Ġhard": 2730,
      "ids": 2731,
      "ably": 2732,
      "iod": 2733,
      "oph": 2734,
      "Ġcomplet": 2735,
      "tr": 2736,
      "ians": 2737,
      "Ġmáº«u": 2738,
      "ĠAust": 2739,
      "body": 2740,
      "ĠchuyÃªn": 2741,
      "ĠRuss": 2742,
      "ĠtÃ¹": 2743,
      "Ġlaw": 2744,
      "ĠchÃ¢n": 2745,
      "ted": 2746,
      "Ġbook": 2747,
      "Chá»ī": 2748,
      "ĠlÃ²ng": 2749,
      "Ġspecies": 2750,
      "ĠPer": 2751,
      "hing": 2752,
      "Ġoften": 2753,
      "ner": 2754,
      "ection": 2755,
      "Ġalong": 2756,
      "ogr": 2757,
      "âĢĿ": 2758,
      "Ġdem": 2759,
      "ĠThese": 2760,
      "akes": 2761,
      "ator": 2762,
      "á»Ńa": 2763,
      "Ġnhiá»ĩt": 2764,
      "Ġgener": 2765,
      "ning": 2766,
      "ky": 2767,
      "à¸": 2768,
      "aster": 2769,
      "ka": 2770,
      "Ġpat": 2771,
      "ĠBl": 2772,
      "ases": 2773,
      "Ġcentury": 2774,
      "Ġrá»Ŀi": 2775,
      "Ġfive": 2776,
      "Ġsáº¯c": 2777,
      "raft": 2778,
      "atic": 2779,
      "Ġincre": 2780,
      "Ġdá»±a": 2781,
      "ĠngÆ°Æ¡i": 2782,
      "ĠMa": 2783,
      "reen": 2784,
      "Ġsure": 2785,
      "ĠBy": 2786,
      "ĠKhÃ´ng": 2787,
      "Ġbáº¡i": 2788,
      "Ġchang": 2789,
      "áºµn": 2790,
      "iter": 2791,
      "Ġperform": 2792,
      "ĠJune": 2793,
      "attle": 2794,
      "ĠOctober": 2795,
      "Ġcháº¥p": 2796,
      "ĠLet": 2797,
      "Ġeng": 2798,
      "ĠMus": 2799,
      "Ġlangu": 2800,
      "ĠMarch": 2801,
      "Ġlight": 2802,
      "ĠBec": 2803,
      "Ġtá»īnh": 2804,
      "á»ĳt": 2805,
      "ĠYour": 2806,
      "Ġdone": 2807,
      "15": 2808,
      "Ġtop": 2809,
      "Ġpri": 2810,
      "ĠEx": 2811,
      "Ġseries": 2812,
      "ĠtháºŃp": 2813,
      "Ġthoáº¡i": 2814,
      "ĠWill": 2815,
      "ĠJuly": 2816,
      "Ġbeh": 2817,
      "Theo": 2818,
      "ĠgiÃłnh": 2819,
      "Ġrece": 2820,
      "ĠSept": 2821,
      "ĠUniversity": 2822,
      "ĠNha": 2823,
      "pril": 2824,
      "Ġbo": 2825,
      "ĠphiÃªn": 2826,
      "?\\\"": 2827,
      "Ġhouse": 2828,
      "ĠLu": 2829,
      "play": 2830,
      "Ġdoesn": 2831,
      "Ġeverything": 2832,
      "to": 2833,
      "ĠniÃªn": 2834,
      "Ġchar": 2835,
      "Báº¡n": 2836,
      "iet": 2837,
      "ides": 2838,
      "Ġson": 2839,
      "Ġtimes": 2840,
      "rew": 2841,
      "ĠâĻ": 2842,
      "ĠHowever": 2843,
      "Qu": 2844,
      "ĠtÃ¢y": 2845,
      "que": 2846,
      "Ġappro": 2847,
      "Ġresp": 2848,
      "Ġunderstand": 2849,
      "¤n": 2850,
      "ĠSome": 2851,
      "ien": 2852,
      "Ġxáº¿p": 2853,
      "Ġbecome": 2854,
      "Ġbelieve": 2855,
      "Sá»±": 2856,
      "ĠGod": 2857,
      "Tá»«": 2858,
      "Ġstarted": 2859,
      "Ġtháº¥t": 2860,
      "ĠJanuary": 2861,
      "Ġsingle": 2862,
      "Ġreport": 2863,
      "Ġrad": 2864,
      "Ġbeg": 2865,
      "Ġmother": 2866,
      "Ġ22": 2867,
      "Ġdesc": 2868,
      "ĠcÃ¡nh": 2869,
      "ĠtuyÃªn": 2870,
      "Ġnothing": 2871,
      "Ġpublic": 2872,
      "iving": 2873,
      "par": 2874,
      "Ġquest": 2875,
      "ĠApril": 2876,
      "Ġsuccess": 2877,
      "200": 2878,
      "ĠSeptember": 2879,
      "ĠÃģ": 2880,
      "Ġmeet": 2881,
      "Ġeffect": 2882,
      "Ġbusiness": 2883,
      "Ġhu": 2884,
      "ĠMe": 2885,
      "Ġsuá»ĳt": 2886,
      "Ġbinh": 2887,
      "Ġlá»ĩnh": 2888,
      "itary": 2889,
      "ĠHy": 2890,
      "ĠnÃºi": 2891,
      "Ġyoung": 2892,
      "ĠSer": 2893,
      "ĠÄĳáº§y": 2894,
      "ively": 2895,
      "Ġchange": 2896,
      "Ġ2005": 2897,
      "ected": 2898,
      "ze": 2899,
      "Ġval": 2900,
      "Ġinterest": 2901,
      "ĠCent": 2902,
      "Ġlarge": 2903,
      "Ġwithin": 2904,
      "ĠHis": 2905,
      "ĠNga": 2906,
      "Ġadv": 2907,
      "ĠBecause": 2908,
      "Ġhiá»ĥm": 2909,
      "Ġvá»£": 2910,
      "ctor": 2911,
      "mber": 2912,
      "ĠBan": 2913,
      "âĢĻ": 2914,
      "ended": 2915,
      "side": 2916,
      "ino": 2917,
      "Ġeas": 2918,
      "Ġmiá»ģn": 2919,
      "Ġháº¡i": 2920,
      "ĠâĨ": 2921,
      "aced": 2922,
      "Ġprof": 2923,
      "tain": 2924,
      "Ġseen": 2925,
      "Ġbuá»Ļc": 2926,
      "Ġ$": 2927,
      "ki": 2928,
      "ĠLeague": 2929,
      "ĠPe": 2930,
      "ria": 2931,
      "Ġhour": 2932,
      "Ġenough": 2933,
      "Ġcáº¡nh": 2934,
      "Ġpopulation": 2935,
      "idd": 2936,
      "Ġprocess": 2937,
      "ued": 2938,
      "ĠbÃ¡c": 2939,
      "rem": 2940,
      "Ġdá»¯": 2941,
      "Ġdest": 2942,
      "Ä©a": 2943,
      "ĠFrench": 2944,
      "ĠphÃºt": 2945,
      "12": 2946,
      "though": 2947,
      "ĠGen": 2948,
      "Ġtháº¥p": 2949,
      "Ġmusic": 2950,
      "ĠkÃ©o": 2951,
      "Ġ23": 2952,
      "Ġ{": 2953,
      "Ġless": 2954,
      "Ġ&": 2955,
      "Ġchildren": 2956,
      "wards": 2957,
      "Ġá»ķ": 2958,
      "Ġlá»Ļ": 2959,
      "rict": 2960,
      "yn": 2961,
      "ization": 2962,
      "Ġsáºµn": 2963,
      "ĠdÃ²ng": 2964,
      "Sao": 2965,
      "ĠcÃłng": 2966,
      "unch": 2967,
      "Ġcompany": 2968,
      "Ġcommon": 2969,
      "Ġrequ": 2970,
      "Ġtuyáº¿n": 2971,
      "ĠcÄĥn": 2972,
      "owed": 2973,
      "ĠJapanese": 2974,
      "Ġcontrol": 2975,
      "Ġsit": 2976,
      "ĠsoÃ¡t": 2977,
      "Ġpur": 2978,
      "Ġstay": 2979,
      "com": 2980,
      "Ġlear": 2981,
      "Ġfight": 2982,
      "Ġnorth": 2983,
      "11": 2984,
      "ĠtrÃºc": 2985,
      "ãĥ": 2986,
      "ample": 2987,
      "res": 2988,
      "ĠgiÃ¡c": 2989,
      "ĠbÄĥng": 2990,
      "Ġdáº¥u": 2991,
      "aut": 2992,
      "Ġtrá»¥": 2993,
      "ĠGeor": 2994,
      "af": 2995,
      "eter": 2996,
      "ĠhÆ¡i": 2997,
      "Ġboy": 2998,
      "ape": 2999,
      "Ġwomen": 3000,
      "acter": 3001,
      "Ġexp": 3002,
      "ĠCity": 3003,
      "ilt": 3004,
      "Ġtown": 3005,
      "ÄĲá»ĥ": 3006,
      "Ġnghi": 3007,
      "Ġstre": 3008,
      "Ġside": 3009,
      "Ġáº¤n": 3010,
      "ĠbÃło": 3011,
      "Ġgáº¯ng": 3012,
      "ĠNational": 3013,
      "ĠkhÃ¡": 3014,
      "go": 3015,
      "Ġhá»ĵi": 3016,
      "Ġchuyáº¿n": 3017,
      "ĠtÃ²a": 3018,
      "\":\"(": 3019,
      "Ġháº¡t": 3020,
      "ein": 3021,
      "Ġsáº¯p": 3022,
      "ĠChrist": 3023,
      "Ġsix": 3024,
      "áº©u": 3025,
      "17": 3026,
      "ĠDecember": 3027,
      "ĠKore": 3028,
      "Ġcáº£i": 3029,
      "Ġtem": 3030,
      "ÄĲÆ°á»£c": 3031,
      "uel": 3032,
      "Ġstory": 3033,
      "Ġnear": 3034,
      "Ġav": 3035,
      "ĠChina": 3036,
      "Ġbody": 3037,
      "Ġconc": 3038,
      "era": 3039,
      "Ġphi": 3040,
      "oul": 3041,
      "Ġsouth": 3042,
      "Ġeconom": 3043,
      "ots": 3044,
      "Ġsai": 3045,
      "ĠbÆ°á»Ľc": 3046,
      "ĠAng": 3047,
      "Ġopp": 3048,
      "br": 3049,
      "ories": 3050,
      "Ġbro": 3051,
      "Ġfoot": 3052,
      "Ġleave": 3053,
      "ode": 3054,
      "ĠkÃ¬": 3055,
      "ĠÄĳoÃ¡n": 3056,
      "Ġsaw": 3057,
      "ready": 3058,
      "ĠVÃł": 3059,
      "Ġbá»ĳn": 3060,
      "Ġcuá»ĳn": 3061,
      "Ġtest": 3062,
      "ĠNove": 3063,
      "Ġcell": 3064,
      "Ġmom": 3065,
      "the": 3066,
      "ĠSw": 3067,
      "ĠNovember": 3068,
      "ĠâĢľ": 3069,
      "lands": 3070,
      "ĠbiÃªn": 3071,
      "Ġship": 3072,
      "Ġsw": 3073,
      "esearch": 3074,
      "ks": 3075,
      "Ġmeans": 3076,
      "Ġreach": 3077,
      "ĠThen": 3078,
      "Ġweb": 3079,
      "Ġkiá»ĥu": 3080,
      "min": 3081,
      "Ġ40": 3082,
      "Ġdiv": 3083,
      "á»Ńi": 3084,
      "Ġinform": 3085,
      "Ġtáº¡p": 3086,
      "ality": 3087,
      "ĠnhÃ©": 3088,
      "Ġtá»©c": 3089,
      "ĠÄĳáº¿": 3090,
      "ĠWith": 3091,
      "Ġcáº¥u": 3092,
      "Ġperiod": 3093,
      "Ġlá»ħ": 3094,
      "Ġtrá»«": 3095,
      "ĠmÃ¡u": 3096,
      "Ġlevel": 3097,
      "Ġwhole": 3098,
      "ĠCr": 3099,
      "itions": 3100,
      "ĠNot": 3101,
      "less": 3102,
      "work": 3103,
      "Ġ26": 3104,
      "Ġtráº¡ng": 3105,
      "Ġmag": 3106,
      "ĠmáºŃt": 3107,
      "Ġfollowing": 3108,
      "Ġnguy": 3109,
      "Ġtrying": 3110,
      "orry": 3111,
      "ĠBá»Ļ": 3112,
      "Ġalready": 3113,
      "Ġhaving": 3114,
      "Ġborn": 3115,
      "Ġable": 3116,
      "Ġonce": 3117,
      "Ġvers": 3118,
      "Ġfar": 3119,
      "Táº¥t": 3120,
      "Ġ28": 3121,
      "ither": 3122,
      "oÃłi": 3123,
      "Ġ27": 3124,
      "Ġquáº§n": 3125,
      "aim": 3126,
      "estern": 3127,
      "lin": 3128,
      "Ġcase": 3129,
      "ĠLook": 3130,
      "ĠHey": 3131,
      "gy": 3132,
      "Ġpresent": 3133,
      "Ġestabl": 3134,
      "Ġidea": 3135,
      "ĠxÃ©t": 3136,
      "ĠmÃ£": 3137,
      "ertain": 3138,
      "Ġnamed": 3139,
      "Ġluyá»ĩn": 3140,
      "Ġkilled": 3141,
      "Ngh": 3142,
      "ĠthÃ¡i": 3143,
      "ĠPal": 3144,
      "Ġz": 3145,
      "uff": 3146,
      "Ġ2004": 3147,
      "ention": 3148,
      "posed": 3149,
      "Ġago": 3150,
      "Ġclub": 3151,
      "ĠÂ": 3152,
      "Ġlooking": 3153,
      "present": 3154,
      "ified": 3155,
      "Ġcult": 3156,
      "ĠmÃ´i": 3157,
      "Ġxung": 3158,
      "Ġshort": 3159,
      "Ġháº¡": 3160,
      "gen": 3161,
      "Ġroom": 3162,
      "ĠRep": 3163,
      "Ġant": 3164,
      "13": 3165,
      "oe": 3166,
      "Ġhalf": 3167,
      "Ġsomeone": 3168,
      "ĠkÃª": 3169,
      "ording": 3170,
      "Ġusing": 3171,
      "ograph": 3172,
      "ĠsÃºng": 3173,
      "Ġlai": 3174,
      "Ġcháº¯n": 3175,
      "omin": 3176,
      "Ġlate": 3177,
      ",\\\"": 3178,
      "16": 3179,
      "amm": 3180,
      "ĠTe": 3181,
      "ĠDe": 3182,
      "Ġhear": 3183,
      "Ġtrao": 3184,
      "Ġnhiá»ħ": 3185,
      "Ġey": 3186,
      "Ġná»ĳi": 3187,
      "ump": 3188,
      "Ġnáº¡n": 3189,
      "Ġbased": 3190,
      "iting": 3191,
      "ĠÄĳá»ĭch": 3192,
      "Ľm": 3193,
      "Ġhá»§y": 3194,
      "Ġjob": 3195,
      "ym": 3196,
      "ĠBritish": 3197,
      "14": 3198,
      "vious": 3199,
      "Ġvar": 3200,
      "most": 3201,
      "áº©y": 3202,
      "rodu": 3203,
      "Ġseem": 3204,
      "ĠÄĳá»«ng": 3205,
      "Ġcourse": 3206,
      "press": 3207,
      "Ġnational": 3208,
      "Ġmaking": 3209,
      "ĠÄĲá»Ļ": 3210,
      "Ġelse": 3211,
      "oint": 3212,
      "Ġworking": 3213,
      "Ġbad": 3214,
      "ĠÄĳá»ĳc": 3215,
      "Ġpain": 3216,
      "lu": 3217,
      "Ġ2000": 3218,
      "Ġdead": 3219,
      "Ġbi": 3220,
      "Ġtá»·": 3221,
      "Ġngá»§": 3222,
      "Ġexample": 3223,
      "Ġaff": 3224,
      "ebru": 3225,
      "ya": 3226,
      "ĠrÃłng": 3227,
      "ĠâĨĳ": 3228,
      "Ġcor": 3229,
      "Ġregion": 3230,
      "ebruary": 3231,
      "Ġá»ķn": 3232,
      "II": 3233,
      "Ġsk": 3234,
      "bo": 3235,
      "Ġanim": 3236,
      "Ġthá»ķ": 3237,
      "ĠTháº¿": 3238,
      "Gi": 3239,
      "Ġwoman": 3240,
      "ops": 3241,
      "ander": 3242,
      "Ġsent": 3243,
      "line": 3244,
      "Ġchá»©a": 3245,
      "ĠÄĳau": 3246,
      "ĠthuáºŃn": 3247,
      "ĠtÃ¡i": 3248,
      "Ġda": 3249,
      "uÃ´i": 3250,
      "ĠItal": 3251,
      "iá»ģm": 3252,
      "Ġcountries": 3253,
      "Ġtel": 3254,
      "Ġniá»ĩm": 3255,
      "Ġbas": 3256,
      "Ġread": 3257,
      "Ġtrad": 3258,
      "Ġtit": 3259,
      "Ġ190": 3260,
      "Ġhá»ĵ": 3261,
      "ĠphÃ³ng": 3262,
      "Ġfre": 3263,
      "ĠÃ¡nh": 3264,
      "Ġcoming": 3265,
      "Ġhold": 3266,
      "lish": 3267,
      "eal": 3268,
      "Ġcamp": 3269,
      "dom": 3270,
      "Ġngáº¯n": 3271,
      "iron": 3272,
      "cle": 3273,
      "ling": 3274,
      "Ġtot": 3275,
      "ĠSec": 3276,
      "ĠFebruary": 3277,
      "ĠtÃ´n": 3278,
      "Æ°á»¡ng": 3279,
      "ĠtrÃ¡ch": 3280,
      "Ġtá»ĭ": 3281,
      "Ġgiáº£n": 3282,
      "eph": 3283,
      "Ġlost": 3284,
      "įc": 3285,
      "ple": 3286,
      "ĠÄĳÃłi": 3287,
      "ran": 3288,
      "Ġtá»ĩ": 3289,
      "á»ıng": 3290,
      "ĠCo": 3291,
      "Ġgá»Ńi": 3292,
      "Ġseason": 3293,
      "ĠTá»ķng": 3294,
      "NA": 3295,
      "Ġbit": 3296,
      "30": 3297,
      "Ġbá»ķ": 3298,
      "ĠsÃ¢u": 3299,
      "Laughter": 3300,
      "ĠtÆ°á»Ľng": 3301,
      "Ġdung": 3302,
      "ester": 3303,
      "ĠcáºŃn": 3304,
      "Ġháº£": 3305,
      "ĠvÆ°Æ¡ng": 3306,
      "Ġlá»Ń": 3307,
      "olution": 3308,
      "utes": 3309,
      "ĠAre": 3310,
      "Ġtim": 3311,
      "Ġleast": 3312,
      "Ġ2018": 3313,
      "Ġlocal": 3314,
      "ĠvÃłng": 3315,
      "ĠCanada": 3316,
      "Ġline": 3317,
      "sc": 3318,
      "ĠMed": 3319,
      "ĠHoÃłng": 3320,
      "Ġrepresent": 3321,
      "Ġmonths": 3322,
      "of": 3323,
      "Ġterr": 3324,
      "sel": 3325,
      "Ġage": 3326,
      "ĠMiss": 3327,
      "aps": 3328,
      "vered": 3329,
      "ĠHáº£i": 3330,
      "Ġ2001": 3331,
      "Ġgiai": 3332,
      "ĠcÅ©": 3333,
      "Ġnon": 3334,
      "aur": 3335,
      "Ġdied": 3336,
      "Ġsá»Ľm": 3337,
      "Ġtráº£i": 3338,
      "ĠAustral": 3339,
      "Ġru": 3340,
      "Giá»Ŀ": 3341,
      "Ġprob": 3342,
      "Ġdue": 3343,
      "bon": 3344,
      "âĢĶ": 3345,
      "Ġmi": 3346,
      "Ġsold": 3347,
      "ĠthÆ°á»Łng": 3348,
      "etimes": 3349,
      "Ġvir": 3350,
      "Ġmind": 3351,
      "Ġclos": 3352,
      "ĠAnt": 3353,
      "Háº¯n": 3354,
      "ering": 3355,
      "Ġwait": 3356,
      "Tháº¿": 3357,
      "ald": 3358,
      "ĠSch": 3359,
      "Ġblood": 3360,
      "ĠDr": 3361,
      "ĠsÃ³ng": 3362,
      "Ġuá»ĳng": 3363,
      "aged": 3364,
      "Ġmilitary": 3365,
      "inese": 3366,
      "Ġ1990": 3367,
      "umb": 3368,
      "ĠChÃºng": 3369,
      "ĠÄĳá»įc": 3370,
      "Ġguys": 3371,
      "Ġnhiá»ħm": 3372,
      "Ġcompet": 3373,
      "ored": 3374,
      "ĠquÃ½": 3375,
      "ards": 3376,
      "ondon": 3377,
      "ĠxÃºc": 3378,
      "Ġbrother": 3379,
      "Ġpubl": 3380,
      "Ġlá»Ńa": 3381,
      "Ġgiven": 3382,
      "ĠChÃºa": 3383,
      "ogn": 3384,
      "Ġfood": 3385,
      "ĠngÃłnh": 3386,
      "Ġhappened": 3387,
      "Ġwife": 3388,
      "Ġtá»ĳc": 3389,
      "Ġremember": 3390,
      "Ġdáº¡y": 3391,
      "etic": 3392,
      "istan": 3393,
      "ĠgiÃ¡m": 3394,
      "Ġtráº¥n": 3395,
      "ĠEnglish": 3396,
      "ration": 3397,
      "Ġi": 3398,
      "Ġcurr": 3399,
      "ĠCá»Ļng": 3400,
      "osp": 3401,
      "Ġkhá»Łi": 3402,
      "Ġpay": 3403,
      "Ġko": 3404,
      "ĠDuring": 3405,
      "ĠAg": 3406,
      "avy": 3407,
      "Viá»ĩc": 3408,
      "Ġngá»ĵi": 3409,
      "oa": 3410,
      "Ġhistory": 3411,
      "ĠÄĳÃŃch": 3412,
      "ĠWest": 3413,
      "ĠÄĳá»Ļt": 3414,
      "ano": 3415,
      "Ġproject": 3416,
      "aj": 3417,
      "men": 3418,
      "Ġproduct": 3419,
      "Ġrev": 3420,
      "iforn": 3421,
      "Ġbuilt": 3422,
      "ival": 3423,
      "Ġgetting": 3424,
      "Ġdisco": 3425,
      "ned": 3426,
      "Ġthough": 3427,
      "ĠCup": 3428,
      "Cho": 3429,
      "Ġstrong": 3430,
      "sp": 3431,
      "ĠngÄĥn": 3432,
      "Ġchiá»ģu": 3433,
      "Ġkháº¯p": 3434,
      "ĠthoÃ¡t": 3435,
      "ĠNor": 3436,
      "yr": 3437,
      "Ġspecial": 3438,
      "ĠCor": 3439,
      "ĠPark": 3440,
      "thers": 3441,
      "ĠdÆ°Æ¡ng": 3442,
      "ĠDav": 3443,
      "Ġactiv": 3444,
      "Ġiss": 3445,
      "ington": 3446,
      "udd": 3447,
      "Ġdeal": 3448,
      "ending": 3449,
      "Ġhoa": 3450,
      "ille": 3451,
      "Ġtour": 3452,
      "ĠSup": 3453,
      "Ġheld": 3454,
      "Ã£ng": 3455,
      "ream": 3456,
      "áº·n": 3457,
      "ĠLondon": 3458,
      "Ġinclude": 3459,
      "ĠMich": 3460,
      "ÄĲá»«ng": 3461,
      "ifornia": 3462,
      "rug": 3463,
      "Ġ29": 3464,
      "Ġevent": 3465,
      "Ġdeb": 3466,
      "Vá»Ľi": 3467,
      "Ġlocated": 3468,
      "Ġthird": 3469,
      "ances": 3470,
      "Ã¨o": 3471,
      "kh": 3472,
      "Ġtry": 3473,
      "lo": 3474,
      "ĠBel": 3475,
      "CÃ¡i": 3476,
      "Ġmáº¡i": 3477,
      "ĠViá»ĩt": 3478,
      "etty": 3479,
      "roy": 3480,
      "Ġauth": 3481,
      "ĠnÃ´ng": 3482,
      "ilar": 3483,
      "Ġisn": 3484,
      "ĠvÃŃ": 3485,
      "Máº·c": 3486,
      "cer": 3487,
      "inning": 3488,
      "Ġdri": 3489,
      "bit": 3490,
      "ĠMex": 3491,
      "ĠEarth": 3492,
      "ross": 3493,
      "ĠAmerica": 3494,
      "Ġtreat": 3495,
      "ĠAlex": 3496,
      "á»¯a": 3497,
      "rial": 3498,
      "Ġngá»±a": 3499,
      "Ġinvol": 3500,
      "Ġlá»±a": 3501,
      "ĠvÆ°á»£t": 3502,
      "Ġfree": 3503,
      "Ġgave": 3504,
      "ergy": 3505,
      "ounds": 3506,
      "Ġport": 3507,
      "Ġbá»Ŀ": 3508,
      "Ġsá»Ńa": 3509,
      "ĠCalifornia": 3510,
      "Ġnáº·ng": 3511,
      "Ġking": 3512,
      "Tá»Ľ": 3513,
      "Ġbáº£ng": 3514,
      "ĠPresident": 3515,
      "thern": 3516,
      "ĠOkay": 3517,
      "Ġfriends": 3518,
      "Ġthá»Ŀ": 3519,
      "ĠtrÃ¬": 3520,
      "aces": 3521,
      "Ġamong": 3522,
      "ĠEvery": 3523,
      "LÃłm": 3524,
      "ĠsÃłng": 3525,
      "ros": 3526,
      "Ġtáº¥n": 3527,
      "Ġmong": 3528,
      "raw": 3529,
      "Ġdisc": 3530,
      "Ġinvest": 3531,
      "Ġheart": 3532,
      "Ġlanguage": 3533,
      "Ġkháº©u": 3534,
      "Ġbar": 3535,
      "Ġlá»¥c": 3536,
      "ission": 3537,
      "Ġcaus": 3538,
      "ĠcÆ°á»Ŀi": 3539,
      "ger": 3540,
      "Ġchá»Ŀ": 3541,
      "Ġface": 3542,
      "Ġvá»Ŀi": 3543,
      "Ġphys": 3544,
      "Ġrepl": 3545,
      "iáº¿p": 3546,
      "Ġbring": 3547,
      "he": 3548,
      "Ġná»Ńa": 3549,
      "epend": 3550,
      "Ġresearch": 3551,
      "ĠChiáº¿n": 3552,
      "Ġche": 3553,
      "Ġinformation": 3554,
      "á»Ļn": 3555,
      "Ġva": 3556,
      "Ġká»ĭch": 3557,
      "BÃ¢y": 3558,
      "ĠbÃŃ": 3559,
      "ĠMad": 3560,
      "ĠsÆ¡": 3561,
      "Ġcomput": 3562,
      "Ġ2003": 3563,
      "Ã³t": 3564,
      "Do": 3565,
      "awa": 3566,
      "Ġkhá»§ng": 3567,
      "Ġwrong": 3568,
      "Ġtyp": 3569,
      "ĠLat": 3570,
      "ĠSam": 3571,
      "Ġrefer": 3572,
      "Ġdev": 3573,
      "ĠParis": 3574,
      "ban": 3575,
      "Ġná»ķ": 3576,
      "ĠtháºŃm": 3577,
      "ĠÃĿ": 3578,
      "ĠPort": 3579,
      "dis": 3580,
      "mp": 3581,
      "Ġthiá»ĩn": 3582,
      "where": 3583,
      "ivil": 3584,
      "ĠnÃ£o": 3585,
      "uture": 3586,
      "de": 3587,
      "Ġgun": 3588,
      "Ġnháº±m": 3589,
      "Ġ{\\\\": 3590,
      "ĠFrance": 3591,
      "Ġtháº±ng": 3592,
      "Ġokay": 3593,
      "ngth": 3594,
      "Ġfig": 3595,
      "ĠChinese": 3596,
      "Ġpercent": 3597,
      "ĠÃŃch": 3598,
      "anna": 3599,
      "ĠXÃ´": 3600,
      "Ġhon": 3601,
      "Ġtw": 3602,
      "ĠDid": 3603,
      "Ġoccur": 3604,
      "ĠSal": 3605,
      "Ġpolitical": 3606,
      "Ġsex": 3607,
      "Ġrelations": 3608,
      "urch": 3609,
      "Ġothers": 3610,
      "ĠÄĳáº£m": 3611,
      "Ġkhá»ı": 3612,
      "ĠChar": 3613,
      "bor": 3614,
      "craft": 3615,
      "ĠMÃ£": 3616,
      "Ġmembers": 3617,
      "ĠWind": 3618,
      "itional": 3619,
      "Ġconn": 3620,
      "25": 3621,
      "reg": 3622,
      "Ġvill": 3623,
      "Ġlow": 3624,
      "idge": 3625,
      "ĠRoman": 3626,
      "Ġwalk": 3627,
      "ena": 3628,
      "Ġfire": 3629,
      "Ġclose": 3630,
      "ands": 3631,
      "Ã³p": 3632,
      "Ġyet": 3633,
      "Ġwasn": 3634,
      "Ġcáº¯t": 3635,
      "ĠtÃŃn": 3636,
      "Ġhours": 3637,
      "Ġnghá»ī": 3638,
      "Ġled": 3639,
      "Ġcond": 3640,
      "Ġformer": 3641,
      "Ġteach": 3642,
      "Ġheard": 3643,
      "Ġwin": 3644,
      "ĠÃ¡o": 3645,
      "ĠtrÃ´ng": 3646,
      "Ġpast": 3647,
      "Ġsoon": 3648,
      "Ġtháº³ng": 3649,
      "Ġtalking": 3650,
      "night": 3651,
      "ploy": 3652,
      "Ġchá»ĵ": 3653,
      "Ġlim": 3654,
      "ĠkhÄĥn": 3655,
      "Ġcost": 3656,
      "Ġarr": 3657,
      "itive": 3658,
      "Ġfull": 3659,
      "Ġannoun": 3660,
      "Ġreason": 3661,
      "ĠNe": 3662,
      "Ġsocial": 3663,
      "Ġnat": 3664,
      "ĠTom": 3665,
      "Ġknew": 3666,
      "ĠxuyÃªn": 3667,
      "ĠAfrica": 3668,
      "Ġalmost": 3669,
      "ĠRo": 3670,
      "urther": 3671,
      "Ġ189": 3672,
      "ĠFranc": 3673,
      "ĠMon": 3674,
      "Ġcam": 3675,
      "ising": 3676,
      "ĠthÄĥm": 3677,
      "ĠMc": 3678,
      "Ġmarket": 3679,
      "ĠHá»Ļi": 3680,
      "Ġarri": 3681,
      "ĠlÄ©nh": 3682,
      "rael": 3683,
      "Ġox": 3684,
      "ĠPart": 3685,
      "ply": 3686,
      "Ġ)": 3687,
      "Ġmaybe": 3688,
      "ĠthÆ¡": 3689,
      "ency": 3690,
      "Ġdeveloped": 3691,
      "Ġnhu": 3692,
      "outher": 3693,
      "ĠYes": 3694,
      "Ġloáº¡t": 3695,
      "ĠÄĳÄ©a": 3696,
      "Ġindust": 3697,
      "ĠSov": 3698,
      "Ġreceived": 3699,
      "uá»ķi": 3700,
      "Ġhá»įa": 3701,
      "Ġofficial": 3702,
      "Ġacross": 3703,
      "Ġcomb": 3704,
      "Ġá»§ng": 3705,
      "Ġprobably": 3706,
      "tiáº¿ng": 3707,
      "Ġbuilding": 3708,
      "za": 3709,
      "ĠHol": 3710,
      "ĠFrank": 3711,
      "ternet": 3712,
      "ael": 3713,
      "ĠPaul": 3714,
      "Ġplayed": 3715,
      "Ġthiáº¿u": 3716,
      "Ġmatter": 3717,
      "ĠMor": 3718,
      "outhern": 3719,
      "Ġ1980": 3720,
      "iber": 3721,
      "Ġphot": 3722,
      "Ġdevelopment": 3723,
      "Ġpress": 3724,
      "ware": 3725,
      "Ġyourself": 3726,
      "iec": 3727,
      "ional": 3728,
      "Ġsaf": 3729,
      "style": 3730,
      "Ġbreak": 3731,
      "Ġexist": 3732,
      "ental": 3733,
      "ĠFrom": 3734,
      "wer": 3735,
      "Ġdaughter": 3736,
      "ief": 3737,
      "Ġhealth": 3738,
      "Ġarm": 3739,
      "Ġsorry": 3740,
      "selves": 3741,
      "Ġphá»ĳi": 3742,
      "Ġkhoáº£n": 3743,
      "Ġquestion": 3744,
      "urt": 3745,
      "for": 3746,
      "Ġsum": 3747,
      "ĠMaybe": 3748,
      "Ġmeth": 3749,
      "TháºŃt": 3750,
      "ences": 3751,
      "Ġcreated": 3752,
      "Ġsett": 3753,
      "Ġfeat": 3754,
      "Ġmakes": 3755,
      "born": 3756,
      "Ġeither": 3757,
      "Ġháº£i": 3758,
      "Hai": 3759,
      "ĠpháºŃn": 3760,
      "27": 3761,
      "Ġident": 3762,
      "oud": 3763,
      "Ġrul": 3764,
      "Ġfield": 3765,
      "ĠCap": 3766,
      "Ġexact": 3767,
      "ĠÄĳá»£i": 3768,
      "ological": 3769,
      "idence": 3770,
      "60": 3771,
      "ĠKim": 3772,
      "ination": 3773,
      "Ġdata": 3774,
      "ĠNhÆ°ng": 3775,
      "Ġrecogn": 3776,
      "CÃ²n": 3777,
      "Ġfuture": 3778,
      "Ġplease": 3779,
      "emy": 3780,
      "Ġeduc": 3781,
      "Ġconsidered": 3782,
      "Ġtá»ĭch": 3783,
      "xim": 3784,
      "ĠGl": 3785,
      "ĠÄĳáº©y": 3786,
      "ĠAcc": 3787,
      "gar": 3788,
      "ĠDÆ°Æ¡ng": 3789,
      "ĠChÃ¢u": 3790,
      "ham": 3791,
      "ĠSing": 3792,
      "Ġsaying": 3793,
      "Ġspeak": 3794,
      "Ġpossible": 3795,
      "Ġthá»§y": 3796,
      "Ġfall": 3797,
      "stit": 3798,
      "aby": 3799,
      "Ġkhá»ıe": 3800,
      "ĠnhiÃªu": 3801,
      "Ġrá»ĳi": 3802,
      "Ġsimilar": 3803,
      "áº§ng": 3804,
      "Ġmoved": 3805,
      "Ġcertain": 3806,
      "ude": 3807,
      "Ġrole": 3808,
      "Ġsqu": 3809,
      "Ġchá»ĵng": 3810,
      "ĠÃ´": 3811,
      "ĠInternational": 3812,
      "oyal": 3813,
      "empt": 3814,
      "Ġsuáº¥t": 3815,
      "Ġlab": 3816,
      "anda": 3817,
      "Ġrá»«ng": 3818,
      "orning": 3819,
      "ĠrÃºt": 3820,
      "ura": 3821,
      "Ġparty": 3822,
      "vÃł": 3823,
      "Ġesc": 3824,
      "Ġtotal": 3825,
      "ãĤ": 3826,
      "Ġcharacter": 3827,
      "not": 3828,
      "Ġly": 3829,
      "Ġliving": 3830,
      "ĠJe": 3831,
      "Pháº£i": 3832,
      "ĠEast": 3833,
      "ij": 3834,
      "Ġoriginal": 3835,
      "Ġtaken": 3836,
      "esh": 3837,
      "Ġáº¢": 3838,
      "Ġtáº§m": 3839,
      "ĠÄĳe": 3840,
      "ĠÄĳÃ¡m": 3841,
      "ĠlÃłng": 3842,
      "Æ°á»Ŀn": 3843,
      "ĠlÃ¡": 3844,
      "Ġxáº¥u": 3845,
      "viron": 3846,
      "Ġtaking": 3847,
      "Má»įi": 3848,
      "ĠBer": 3849,
      "Ġfail": 3850,
      "ĠWho": 3851,
      "Ġtiá»ĩn": 3852,
      "aving": 3853,
      "ima": 3854,
      "Ġ2002": 3855,
      "Ġlargest": 3856,
      "mb": 3857,
      "uted": 3858,
      "Ġorigin": 3859,
      "ĠnghiÃªm": 3860,
      "Ġforg": 3861,
      "Ġasked": 3862,
      "Ġpract": 3863,
      "Ġminutes": 3864,
      "Ġservice": 3865,
      "Ġsays": 3866,
      "ĠIsrael": 3867,
      "ivid": 3868,
      "itten": 3869,
      "Ġpopular": 3870,
      "Ã£n": 3871,
      "ĠVal": 3872,
      "ĠFirst": 3873,
      "Ġ?\"}": 3874,
      "Ġproduction": 3875,
      "Ġexpect": 3876,
      "Ġentire": 3877,
      "ĠSom": 3878,
      "Ġdá»ĭ": 3879,
      "Ġ60": 3880,
      "ĠQue": 3881,
      "ĠnuÃ´i": 3882,
      "alt": 3883,
      "Ġdestroy": 3884,
      "Ã³i": 3885,
      "Ġap": 3886,
      "read": 3887,
      "ĠSun": 3888,
      "Ġinternational": 3889,
      "Ġappl": 3890,
      "artment": 3891,
      "Ġvol": 3892,
      "Ġngá»Ŀ": 3893,
      "ĠthÃŃ": 3894,
      "ĠGeorge": 3895,
      "Ġloáº¡n": 3896,
      "ĠtrÃ¹ng": 3897,
      "ĠâĻª": 3898,
      "Ġkháº¯c": 3899,
      "Ġvo": 3900,
      "ny": 3901,
      "ero": 3902,
      "Ġdescrib": 3903,
      "ĠFl": 3904,
      "yo": 3905,
      "Ġlinh": 3906,
      "Ġnor": 3907,
      "Ġsurv": 3908,
      "rain": 3909,
      "Ġworked": 3910,
      "ĠIndia": 3911,
      "onia": 3912,
      "Ġkim": 3913,
      "Ġareas": 3914,
      "ĠMont": 3915,
      "Ġlik": 3916,
      "Ġinflu": 3917,
      "Ġcapital": 3918,
      "ĠÄĳÄĥng": 3919,
      "Ġans": 3920,
      "Ġauthor": 3921,
      "Ġwouldn": 3922,
      "á»·": 3923,
      "Ġhope": 3924,
      "asc": 3925,
      "oo": 3926,
      "Ġsour": 3927,
      "Ġmember": 3928,
      "Ġphá»©c": 3929,
      "Ġprim": 3930,
      "79": 3931,
      "ĠJames": 3932,
      "Ġobject": 3933,
      "ĠlÃŃnh": 3934,
      "Ġdáº§n": 3935,
      "Ġexc": 3936,
      "Ġcal": 3937,
      "Ġhit": 3938,
      "Ġmodel": 3939,
      "Ġstruct": 3940,
      "Ġfinal": 3941,
      "Ġoffer": 3942,
      "ĠMag": 3943,
      "Ġspace": 3944,
      "Ġbeaut": 3945,
      "Ġgrow": 3946,
      "Ġgiáº¥y": 3947,
      "Ġfront": 3948,
      "ruction": 3949,
      "razil": 3950,
      "ĠPhilipp": 3951,
      "ĠMart": 3952,
      "ript": 3953,
      "Ġusually": 3954,
      "Ġfootball": 3955,
      "ĠMexico": 3956,
      "iger": 3957,
      "Ġoutside": 3958,
      "Ġintrodu": 3959,
      "ĠSoviet": 3960,
      "ĠthÆ°a": 3961,
      "Ġenergy": 3962,
      "Ġmate": 3963,
      "ĠmÃ³n": 3964,
      "itz": 3965,
      "ĠmÆ¡": 3966,
      "avel": 3967,
      "Ġview": 3968,
      "Ġthiá»ĩu": 3969,
      "Ġcop": 3970,
      "ĠTok": 3971,
      "anch": 3972,
      "Æ°á»£u": 3973,
      "aper": 3974,
      "ĠbÃ¡nh": 3975,
      "Ġnhá»ī": 3976,
      "ulf": 3977,
      "Ġforces": 3978,
      "Ġ188": 3979,
      ":\"}": 3980,
      "Ġchiáº¿u": 3981,
      "ĠTur": 3982,
      "Ġobs": 3983,
      "ĠSl": 3984,
      "Ġmyself": 3985,
      "iddle": 3986,
      "Ġmult": 3987,
      "Ġtráº¡i": 3988,
      "NhÆ°": 3989,
      "ĠthÃ¹": 3990,
      "Ġcir": 3991,
      "Ġnhá»Ŀ": 3992,
      "Ġarch": 3993,
      "Ġinit": 3994,
      "Ġthinking": 3995,
      "ication": 3996,
      "ĠBen": 3997,
      "Ġversion": 3998,
      "Ġworks": 3999,
      "uf": 4000,
      "Ġtáº§ng": 4001,
      "Ġthá»ı": 4002,
      "Ġlives": 4003,
      "aff": 4004,
      "dro": 4005,
      "anger": 4006,
      "omet": 4007,
      "Ġpublished": 4008,
      "NgoÃłi": 4009,
      "Ġsometimes": 4010,
      "Ġproper": 4011,
      "playstyle": 4012,
      "ĠCÃ³": 4013,
      "Ġmai": 4014,
      "Ġcut": 4015,
      "Ġmarried": 4016,
      "Ġmess": 4017,
      "ĠsÃ¡u": 4018,
      "Ġhost": 4019,
      "Ġtáº£i": 4020,
      "Ġláº¡": 4021,
      "used": 4022,
      "ps": 4023,
      "ÃĿ": 4024,
      "ĠVÆ°Æ¡ng": 4025,
      "Ġmá»Ŀi": 4026,
      ":\",\"": 4027,
      "fic": 4028,
      "ests": 4029,
      "ĠCome": 4030,
      "Ġclaim": 4031,
      "ĠkÃŃnh": 4032,
      "Ġlá»Ľp": 4033,
      "ĠBrazil": 4034,
      "ĠTrÃ¡i": 4035,
      "23": 4036,
      "á»©a": 4037,
      "Ġposition": 4038,
      "Ġtriá»ģu": 4039,
      "ĠAi": 4040,
      "Ġuh": 4041,
      "Ġinside": 4042,
      "Ġcomes": 4043,
      "ĠLou": 4044,
      "ested": 4045,
      "ĠNhÃł": 4046,
      "Ġpretty": 4047,
      "Ã©m": 4048,
      "ĠEuropean": 4049,
      "Ġgeneral": 4050,
      "ĠgÃ³p": 4051,
      "ĠRepublic": 4052,
      "Ġ1970": 4053,
      "ends": 4054,
      "ĠSant": 4055,
      "ĠtrÃ¡nh": 4056,
      "ĠHÃłn": 4057,
      "Ġstar": 4058,
      "Ġcolle": 4059,
      "ĠphÃª": 4060,
      "Ġchá»¯a": 4061,
      "Ġmodern": 4062,
      "Ġvarious": 4063,
      "Ġchá»§ng": 4064,
      "Ġtrue": 4065,
      "ouble": 4066,
      "Ġpost": 4067,
      "CÃ´ng": 4068,
      "etwork": 4069,
      "Ġstudy": 4070,
      "Ġestablished": 4071,
      "áº¹n": 4072,
      "ĠHen": 4073,
      "Ġ#": 4074,
      "á»¥y": 4075,
      "band": 4076,
      "ĠÄĳá»ı": 4077,
      "40": 4078,
      "ida": 4079,
      "ĠWindows": 4080,
      "ĠDiv": 4081,
      "Ġrob": 4082,
      "displaystyle": 4083,
      "face": 4084,
      "ĠNgh": 4085,
      "Ã¶": 4086,
      "Máº¹": 4087,
      "Ġreturned": 4088,
      "ha": 4089,
      "Ġthá»«a": 4090,
      "Ġhimself": 4091,
      "anks": 4092,
      "ÅĤ": 4093,
      "ĠRáºŃp": 4094,
      "ĠtrÄĥm": 4095,
      "ĠÃļ": 4096,
      "Ġengine": 4097,
      "Ġmanag": 4098,
      "Ġisland": 4099,
      "TrÆ°á»Ľc": 4100,
      "Ġtrá»ĳn": 4101,
      "Ġwind": 4102,
      "aud": 4103,
      "Ġmorning": 4104,
      "Ġtháº£o": 4105,
      "ential": 4106,
      "Ġtai": 4107,
      "ĠMil": 4108,
      "Ġvict": 4109,
      "year": 4110,
      "erc": 4111,
      "ĠquÃªn": 4112,
      "ĠDan": 4113,
      "Ġtráº¯ng": 4114,
      "Ã¼": 4115,
      "Ġoffice": 4116,
      "Ġbrought": 4117,
      "Ġ=": 4118,
      "ola": 4119,
      "ĠSm": 4120,
      "ĠJos": 4121,
      "ĠRed": 4122,
      "ĠcÆ¡n": 4123,
      "irth": 4124,
      "ula": 4125,
      "Ġprotect": 4126,
      "Ġindivid": 4127,
      "ĠrÆ°á»£u": 4128,
      "Ġbecom": 4129,
      "Ġ31": 4130,
      "AS": 4131,
      "ĠWhere": 4132,
      "ĠchÄĥm": 4133,
      "ffic": 4134,
      "Ġep": 4135,
      "Ġtuyá»ĥn": 4136,
      "ampions": 4137,
      "ford": 4138,
      "Ġserved": 4139,
      "iy": 4140,
      "ĠIm": 4141,
      "Ġdáº§u": 4142,
      "ĠÄĳá»¡": 4143,
      "Ġfurther": 4144,
      "burg": 4145,
      "gent": 4146,
      "ĠdáºŃy": 4147,
      "Ġvari": 4148,
      "ugh": 4149,
      "aint": 4150,
      "pire": 4151,
      "cum": 4152,
      "Ġsepar": 4153,
      "vironment": 4154,
      "Ġhands": 4155,
      "ĠnháºŃt": 4156,
      "urity": 4157,
      "ĠAustralia": 4158,
      "ĠrÆ¡i": 4159,
      "Ġpha": 4160,
      "ĠdÃ¢y": 4161,
      "ĠTV": 4162,
      "Ġfav": 4163,
      "ĠkhÃ¡m": 4164,
      "Ġmoment": 4165,
      "Ġpresident": 4166,
      "ĠbÃły": 4167,
      "leep": 4168,
      "elt": 4169,
      "ĠApp": 4170,
      "Ġrep": 4171,
      "ĠlÆ°á»£c": 4172,
      "ĠRiver": 4173,
      "Ġris": 4174,
      "Ġhowever": 4175,
      "Ġaut": 4176,
      "Ġrather": 4177,
      "imate": 4178,
      "Ġmeas": 4179,
      "cil": 4180,
      "ĠRet": 4181,
      "Ġanyone": 4182,
      "ĠÄĳÃło": 4183,
      "ĠAct": 4184,
      "Ġbom": 4185,
      "oid": 4186,
      "ĠmÃłn": 4187,
      "Ġxanh": 4188,
      "oz": 4189,
      "ĠphÃ¹": 4190,
      "Xin": 4191,
      "uz": 4192,
      "orrow": 4193,
      "Ġvá»ĳn": 4194,
      "Bá»Łi": 4195,
      "use": 4196,
      "Ġhuáº¥n": 4197,
      "Ġthá»¥": 4198,
      "Ġavail": 4199,
      "FA": 4200,
      "Ġ1999": 4201,
      "ita": 4202,
      "Ġbehind": 4203,
      "\\\"\"}": 4204,
      "acy": 4205,
      "Ġforce": 4206,
      "Ġgrad": 4207,
      "Ġkhiá»ĥn": 4208,
      "Nhiá»ģu": 4209,
      "sequ": 4210,
      "Ġcreat": 4211,
      "ĠÄĳáº£ng": 4212,
      "Ġalone": 4213,
      "Ġaircraft": 4214,
      "Ġannounced": 4215,
      "ĠRober": 4216,
      "199": 4217,
      "Ġcoll": 4218,
      "ĠtáºŃn": 4219,
      "Ġtrá»¥c": 4220,
      "evision": 4221,
      "asing": 4222,
      "ĠRich": 4223,
      "ills": 4224,
      "oms": 4225,
      "Ġlao": 4226,
      "ĠArmy": 4227,
      "Ġláº¯ng": 4228,
      "Ġsignific": 4229,
      "Ã²i": 4230,
      "ĠngÃ¢n": 4231,
      "rian": 4232,
      "Ġindepend": 4233,
      "ĠtrÆ°ng": 4234,
      "ĠÂ°": 4235,
      "Ġtá»ı": 4236,
      "Ġchá»¥": 4237,
      "ania": 4238,
      "Ġsitu": 4239,
      "ĠsiÃªu": 4240,
      "lymp": 4241,
      "airs": 4242,
      "val": 4243,
      "ĠFrancis": 4244,
      "ensive": 4245,
      "ique": 4246,
      "ĠUnion": 4247,
      "Ġpriv": 4248,
      "ĠnÃ³ng": 4249,
      "ĠLáº¡p": 4250,
      "Ġbrain": 4251,
      "Ġ1960": 4252,
      "Ġtrá»¯": 4253,
      "ĠJo": 4254,
      "Ġmot": 4255,
      "ĠIII": 4256,
      "ecially": 4257,
      "Ġá»": 4258,
      "Ġsugg": 4259,
      "Ġhá»ģ": 4260,
      "ĠSchool": 4261,
      "aves": 4262,
      "Ġscient": 4263,
      "Ġstat": 4264,
      "ples": 4265,
      "St": 4266,
      "Ġrespect": 4267,
      "ĠAc": 4268,
      "ĠDavid": 4269,
      "Ġwants": 4270,
      "ĠhÃºt": 4271,
      "Ġnháº¯c": 4272,
      "Ġmount": 4273,
      "Ġwid": 4274,
      "Ġsch": 4275,
      "Ar": 4276,
      "Ġproduced": 4277,
      "Ġcháº£y": 4278,
      "cel": 4279,
      "ĠCount": 4280,
      "ĠMary": 4281,
      "LÃł": 4282,
      "ĠchÃ³": 4283,
      "Ġprevious": 4284,
      "sy": 4285,
      "Ġkid": 4286,
      "Ġattempt": 4287,
      "Al": 4288,
      "iers": 4289,
      "ĠGiáº£i": 4290,
      "Ġhot": 4291,
      "ÄĲáº¿n": 4292,
      "ĠOl": 4293,
      "ĠHigh": 4294,
      "Ġcoup": 4295,
      "ĠBay": 4296,
      "ĠphÃ¡n": 4297,
      "Ġsort": 4298,
      "ios": 4299,
      "ih": 4300,
      "Ġlonger": 4301,
      "bert": 4302,
      "ĠtÃ¡ch": 4303,
      "ask": 4304,
      "Ġfoc": 4305,
      "ĠRussian": 4306,
      "ĠÄĳiÃªn": 4307,
      "ĠGermany": 4308,
      "Ġwritten": 4309,
      "unt": 4310,
      "fect": 4311,
      "Ġtro": 4312,
      "Ġ(\\\"": 4313,
      "ring": 4314,
      "ray": 4315,
      "Ġmá»Ļ": 4316,
      "ĠhÃ¨": 4317,
      "ĠFlor": 4318,
      "Ġtáº¯c": 4319,
      "Ġháº¡nh": 4320,
      "ĠmÃ´n": 4321,
      "ĠOlymp": 4322,
      "Ġdie": 4323,
      "ca": 4324,
      "ĠHouse": 4325,
      "ala": 4326,
      "ciety": 4327,
      "Ġabs": 4328,
      "mar": 4329,
      "Ġháº¥p": 4330,
      "ĠAngel": 4331,
      "Ġdá»«ng": 4332,
      "Ġ1998": 4333,
      "Ġtype": 4334,
      "Ġmach": 4335,
      "itor": 4336,
      "ĠPeople": 4337,
      "Ġgames": 4338,
      "iful": 4339,
      "ona": 4340,
      "ĠSim": 4341,
      "ĠSince": 4342,
      "Wh": 4343,
      "more": 4344,
      "á»£i": 4345,
      "va": 4346,
      "wood": 4347,
      "Ġfac": 4348,
      "Ġpot": 4349,
      "Ġcrit": 4350,
      "Ġ80": 4351,
      "ĠPan": 4352,
      "Ġaccount": 4353,
      "Ġimpro": 4354,
      "Ġrespons": 4355,
      "Ġváº½": 4356,
      "Ġpolice": 4357,
      "uyáº¿n": 4358,
      "Ġarmy": 4359,
      "iff": 4360,
      "ĠÄĳuá»ķi": 4361,
      "Ġprogram": 4362,
      "Ġcy": 4363,
      "Ġchá»īnh": 4364,
      "DÃ¹": 4365,
      "Ġquen": 4366,
      "Ġjoined": 4367,
      "NhÃł": 4368,
      "ĠsÃ³c": 4369,
      "Ġcareer": 4370,
      "Ġ+": 4371,
      "la": 4372,
      "Ġfem": 4373,
      "Ġnháº£y": 4374,
      "ĠCharles": 4375,
      "ĠGiÃ¡o": 4376,
      "ago": 4377,
      "ĠphÃºc": 4378,
      "Ġshot": 4379,
      "Ġrelationship": 4380,
      "eat": 4381,
      "rom": 4382,
      "Ġdrug": 4383,
      "Ġcover": 4384,
      "Ġparts": 4385,
      "unk": 4386,
      "80": 4387,
      "obal": 4388,
      "Ġparticip": 4389,
      "Ġmiá»ħn": 4390,
      "Ġaccept": 4391,
      "Ġcivil": 4392,
      "sinh": 4393,
      "cient": 4394,
      "Ġstuff": 4395,
      "ortun": 4396,
      "eration": 4397,
      "Ġpict": 4398,
      "ĠReg": 4399,
      "order": 4400,
      "ĠCÃ´": 4401,
      "ĠxÃ¢m": 4402,
      "ucle": 4403,
      "che": 4404,
      "minist": 4405,
      "ĠWash": 4406,
      "ĠGeneral": 4407,
      "Ġsystems": 4408,
      "ĠArab": 4409,
      "Ġexactly": 4410,
      "Ġdam": 4411,
      ")\"}": 4412,
      "ĠtÆ°á»Ľc": 4413,
      "Ġna": 4414,
      "Ġcouldn": 4415,
      "ĠÎ": 4416,
      "ĠngÆ°á»£c": 4417,
      "ability": 4418,
      "Ġneg": 4419,
      "ĠGal": 4420,
      "riev": 4421,
      "Ġcoast": 4422,
      "itted": 4423,
      "Ġtechnology": 4424,
      "berg": 4425,
      "Ãµi": 4426,
      "iding": 4427,
      "ped": 4428,
      "ĠSyria": 4429,
      "pose": 4430,
      "now": 4431,
      "Ġsir": 4432,
      "ĠKorea": 4433,
      "Ġparents": 4434,
      "ĠRec": 4435,
      "ĠWilliam": 4436,
      "Ġhá»©ng": 4437,
      "Ġincluded": 4438,
      "Ho": 4439,
      "ĠDis": 4440,
      "Ġquáº£ng": 4441,
      "Ġcapt": 4442,
      "Ġeyes": 4443,
      "Ġlisten": 4444,
      "ĠAccording": 4445,
      "ficult": 4446,
      "Ġdise": 4447,
      "Ġná»Ĺ": 4448,
      "ĠsÄĥn": 4449,
      "istic": 4450,
      "Ġlaunch": 4451,
      "Ġkil": 4452,
      "Ġbuy": 4453,
      "Ġfund": 4454,
      "irm": 4455,
      "ĠphÃ¡o": 4456,
      "Ġpred": 4457,
      "erve": 4458,
      "Ġrelease": 4459,
      "ĠchÃºa": 4460,
      "Ġchim": 4461,
      "Ġavailable": 4462,
      "ĠDel": 4463,
      "Ġredu": 4464,
      "Ġclear": 4465,
      "anish": 4466,
      "Ġcá»±": 4467,
      "ĠMos": 4468,
      "ĠÄĳÆ°Æ¡ng": 4469,
      "Ġcannot": 4470,
      "NÃ³i": 4471,
      "Ġtá»Ŀ": 4472,
      ".,": 4473,
      "Ġmid": 4474,
      "elling": 4475,
      "Ġtitle": 4476,
      "Ġthá»ıa": 4477,
      "á»ģm": 4478,
      "Ġchance": 4479,
      "ĠlÃ¡i": 4480,
      "Ġthuyá»ģn": 4481,
      "Ġang": 4482,
      "ĠÃļc": 4483,
      "owers": 4484,
      "Ġxong": 4485,
      "Tiáº¿ng": 4486,
      "Ġreact": 4487,
      "atever": 4488,
      "TÃªn": 4489,
      "BC": 4490,
      "head": 4491,
      "Ġdifficult": 4492,
      "Ġnatural": 4493,
      "aid": 4494,
      "ĠhÃ£ng": 4495,
      "Ġhistor": 4496,
      "Ġbattle": 4497,
      "Ġguess": 4498,
      "Ġtax": 4499,
      "Ġsáº»": 4500,
      "ceed": 4501,
      "Ġwonder": 4502,
      "Ġalthough": 4503,
      "cu": 4504,
      "usband": 4505,
      "á»ıa": 4506,
      "Ġnorm": 4507,
      "ĠCong": 4508,
      "cing": 4509,
      "Ġeveryone": 4510,
      "Ġsil": 4511,
      "Ġtruyá»ĩn": 4512,
      "ĠArgent": 4513,
      "Nghe": 4514,
      "ols": 4515,
      "Ġten": 4516,
      "Å©i": 4517,
      "Ġáº©n": 4518,
      "Ġgrand": 4519,
      "Ġchem": 4520,
      "Ġsignificant": 4521,
      "ĠWashington": 4522,
      "ĠBill": 4523,
      "Ġchá»ĳi": 4524,
      "ChÃŃnh": 4525,
      "ĠdÃłng": 4526,
      "Ġ1997": 4527,
      "Ġspecific": 4528,
      "Ġcross": 4529,
      "ĠcÃ¢n": 4530,
      "Ġwrote": 4531,
      "aign": 4532,
      "Ġbirth": 4533,
      "Ġwanna": 4534,
      "ĠWil": 4535,
      "Ġeight": 4536,
      "Ġthá»ĭt": 4537,
      "ĠMost": 4538,
      "ospital": 4539,
      "Ġreported": 4540,
      "ĠgÃ£": 4541,
      "\\\")": 4542,
      "Ġfell": 4543,
      "especially": 4544,
      "ements": 4545,
      "ini": 4546,
      "ĠÄĳá»īnh": 4547,
      "ĠchÃłng": 4548,
      "ises": 4549,
      "ĠsÃ³t": 4550,
      "Ġchanged": 4551,
      "Ġcáº§m": 4552,
      "Ġbomb": 4553,
      "ĠkhÃ¡ng": 4554,
      "Ġ1945": 4555,
      "Ġdecided": 4556,
      "Ġláº¡nh": 4557,
      "Ġanal": 4558,
      "Ġ186": 4559,
      "á»įt": 4560,
      "ĠAlthough": 4561,
      "ĠTwo": 4562,
      "ji": 4563,
      "Ġenc": 4564,
      "Ġmá»«ng": 4565,
      "ĠPet": 4566,
      "alle": 4567,
      "rey": 4568,
      "ĠNa": 4569,
      "ĠInternet": 4570,
      "Ġmá»ģm": 4571,
      "Ġpiec": 4572,
      "Ġphone": 4573,
      "ĠLike": 4574,
      "Ġtruy": 4575,
      "Ġagre": 4576,
      "Ġwords": 4577,
      "Ġinstead": 4578,
      "Ġcontinued": 4579,
      "ĠArt": 4580,
      "str": 4581,
      "ĠBro": 4582,
      "edd": 4583,
      "ges": 4584,
      "Ġhiá»ĩp": 4585,
      "Cha": 4586,
      "Ġquite": 4587,
      "ube": 4588,
      "ĠMark": 4589,
      "Ġtrust": 4590,
      "Ġtáº¥m": 4591,
      "Ġenvironment": 4592,
      "Ġhaven": 4593,
      "ani": 4594,
      "Ġmáº¯c": 4595,
      "Ġimag": 4596,
      "ĠWhile": 4597,
      "gypt": 4598,
      "ĠAny": 4599,
      "medi": 4600,
      "omm": 4601,
      "ĠList": 4602,
      "Ġvillage": 4603,
      "AT": 4604,
      "Ġready": 4605,
      "Ġcreate": 4606,
      "Ġgone": 4607,
      "Ġthous": 4608,
      "ĠCO": 4609,
      "43": 4610,
      "Ġstates": 4611,
      "ĠSte": 4612,
      "ĠPri": 4613,
      "ishing": 4614,
      "ĠState": 4615,
      "ators": 4616,
      "Ġxo": 4617,
      "Ġmáº¡ch": 4618,
      "Ġft": 4619,
      "Ġdeep": 4620,
      "ĠHere": 4621,
      "agon": 4622,
      "ouncil": 4623,
      "Ġsecret": 4624,
      "ĠMac": 4625,
      "Ġmáº½": 4626,
      "Ġdescribed": 4627,
      "Ġneeds": 4628,
      "70": 4629,
      "ĠMinister": 4630,
      "ĠÄĳÃ¡p": 4631,
      "lement": 4632,
      "Ġground": 4633,
      "su": 4634,
      "ĠGreat": 4635,
      "atal": 4636,
      "Ġitself": 4637,
      "Ġvirus": 4638,
      "eh": 4639,
      "Ġax": 4640,
      "ĠÄĲáº£ng": 4641,
      "ĠÄĳÃª": 4642,
      "ID": 4643,
      "Ġnáº¯m": 4644,
      "Ġ1950": 4645,
      "Ġsus": 4646,
      "Ġsister": 4647,
      "lt": 4648,
      "MÃły": 4649,
      "Ġhusband": 4650,
      "Ġeast": 4651,
      "ites": 4652,
      "ato": 4653,
      "Ġkids": 4654,
      "duct": 4655,
      "Ġshoot": 4656,
      "ĠIsland": 4657,
      "ĠthÃª": 4658,
      "ĠComp": 4659,
      "ĠThá»¥y": 4660,
      "Ġupon": 4661,
      "ĠbÃ£o": 4662,
      "Ġbaby": 4663,
      "Ġ1994": 4664,
      "ateg": 4665,
      "nal": 4666,
      "ĠNob": 4667,
      "Ġweeks": 4668,
      "Ġself": 4669,
      "Ġsurr": 4670,
      "aring": 4671,
      "Ġaccess": 4672,
      "Ġsuccessful": 4673,
      "ĠtÆ°á»Ŀng": 4674,
      "Ġmur": 4675,
      "Ġgroups": 4676,
      "Ġproblems": 4677,
      "Ġdeg": 4678,
      "Ġsuff": 4679,
      "ĠDivision": 4680,
      "rieved": 4681,
      "ĠVir": 4682,
      "oke": 4683,
      "Ġtried": 4684,
      "Ġáº¥n": 4685,
      "Ġ1992": 4686,
      "ĠSol": 4687,
      "Ġoppos": 4688,
      "Ġamount": 4689,
      "Ġsense": 4690,
      "ĠEgypt": 4691,
      "oft": 4692,
      "Ġhá»©a": 4693,
      "á»įa": 4694,
      "Bá»įn": 4695,
      "Ġsound": 4696,
      "ĠMic": 4697,
      "ĠEnter": 4698,
      "atory": 4699,
      "Ġtemper": 4700,
      "off": 4701,
      "ĠDist": 4702,
      "Ġrelig": 4703,
      "chie": 4704,
      "áº·m": 4705,
      "Ġthao": 4706,
      "undred": 4707,
      "Ġwest": 4708,
      "oto": 4709,
      "ients": 4710,
      "Ġnice": 4711,
      "ĠÄĳem": 4712,
      "ĠGrand": 4713,
      "ĠkhÃºc": 4714,
      "Ġespecially": 4715,
      "Ġplayer": 4716,
      "Ġtelevision": 4717,
      "ecess": 4718,
      "aya": 4719,
      "hib": 4720,
      "Bá»ĳ": 4721,
      "ıi": 4722,
      "Cháº¯c": 4723,
      "Ġ1996": 4724,
      "Ġconv": 4725,
      "ularly": 4726,
      "Ġpolic": 4727,
      "ĠMá»Ļt": 4728,
      "Ġseven": 4729,
      "olf": 4730,
      "ĠOf": 4731,
      "Ġfunction": 4732,
      "Ġopt": 4733,
      "unic": 4734,
      "ĠSil": 4735,
      "21": 4736,
      "?\\\"\",\"": 4737,
      "Ġrange": 4738,
      "Cuá»Ļc": 4739,
      "gn": 4740,
      "Ġsupposed": 4741,
      "Ġradio": 4742,
      "peror": 4743,
      "Ġmethod": 4744,
      "Ġ90": 4745,
      "Ġplaying": 4746,
      "ĠtÃłng": 4747,
      "Ġhappy": 4748,
      "ĠSir": 4749,
      "ĠBur": 4750,
      "ender": 4751,
      "Ġste": 4752,
      "ĠCáºŃp": 4753,
      "Ġimm": 4754,
      "ords": 4755,
      "Ã¨n": 4756,
      "Ġbá»ģ": 4757,
      "Ġder": 4758,
      "ĠâĢĶ": 4759,
      "ĠKingdom": 4760,
      "Ġquá»¹": 4761,
      "Ġ70": 4762,
      "ĠWars": 4763,
      "ĠcÆ°á»Ľi": 4764,
      "Ġ1995": 4765,
      "Ġemploy": 4766,
      "Ġnguyá»ĩn": 4767,
      "ĠthuÃª": 4768,
      "ella": 4769,
      "Ġnorthern": 4770,
      "Ġláº«n": 4771,
      "ĠtrÃło": 4772,
      "Ġsleep": 4773,
      "ĠCentral": 4774,
      "Bá»Ļ": 4775,
      "Ġnews": 4776,
      "Ġsouthern": 4777,
      "Ġbá»¯a": 4778,
      "ĠgiÃł": 4779,
      "Ġgoes": 4780,
      "Ġpromot": 4781,
      "Ġill": 4782,
      "Ġdiá»ĩt": 4783,
      "oor": 4784,
      "ãģ": 4785,
      "ĠMáº·t": 4786,
      "ĠTÆ°": 4787,
      "ĠCarl": 4788,
      "Ġcai": 4789,
      "Ġquang": 4790,
      "ko": 4791,
      "}}": 4792,
      "icated": 4793,
      "iple": 4794,
      "ift": 4795,
      "Ġ1991": 4796,
      "Ġdrink": 4797,
      "Ġcomputer": 4798,
      "Ġeducation": 4799,
      "Ai": 4800,
      "Ġge": 4801,
      "ĠnÃ¢ng": 4802,
      "Ġwhite": 4803,
      "icle": 4804,
      "Ġcommunity": 4805,
      "á»¡": 4806,
      "ĠmÃ¹": 4807,
      "Ġknows": 4808,
      "ris": 4809,
      "Ġur": 4810,
      "Ġcollect": 4811,
      "Tao": 4812,
      "arily": 4813,
      "Ġeconomic": 4814,
      "ĠNgÆ°á»Ŀi": 4815,
      "let": 4816,
      "Ġnov": 4817,
      "Ġkey": 4818,
      "ĠThom": 4819,
      "Ġstri": 4820,
      "haps": 4821,
      "ĠRobert": 4822,
      "Ġcouple": 4823,
      "gin": 4824,
      "Ġhá»įp": 4825,
      "och": 4826,
      "ĠhÃłi": 4827,
      ")\",\"": 4828,
      "ĠcÆ°á»Ŀng": 4829,
      "ĠMichael": 4830,
      "Ġearl": 4831,
      "ĠLouis": 4832,
      "ĠLos": 4833,
      "Ġtravel": 4834,
      "CÅ©ng": 4835,
      "ĠlÅ©": 4836,
      "22": 4837,
      "45": 4838,
      "apt": 4839,
      "Ġbreed": 4840,
      "osh": 4841,
      "ĠtÃ¡n": 4842,
      "field": 4843,
      "Ġdá»įa": 4844,
      "reek": 4845,
      "Ġformed": 4846,
      "Ġcause": 4847,
      "ĠmÆ°á»Ŀi": 4848,
      "ĠmÃ¡i": 4849,
      "Ġwall": 4850,
      "ĠGovern": 4851,
      "Ġtraining": 4852,
      "Ġabove": 4853,
      "Ġbáº¡o": 4854,
      "Ġcast": 4855,
      "stant": 4856,
      "Ġjour": 4857,
      "Ġcentral": 4858,
      "ĠmÃ£i": 4859,
      "Ġtakes": 4860,
      "Ġprofession": 4861,
      "Ġtri": 4862,
      "ĠSen": 4863,
      "ights": 4864,
      "Ġtá»ī": 4865,
      "arn": 4866,
      "Ġprison": 4867,
      "ĠquáºŃn": 4868,
      "Ġhydro": 4869,
      "Ġroad": 4870,
      "Ġngá»«ng": 4871,
      "Ġcust": 4872,
      "osph": 4873,
      "ĠTell": 4874,
      "Ġcases": 4875,
      "Ġball": 4876,
      "ĠCub": 4877,
      "Ġlearn": 4878,
      "NÃły": 4879,
      "Ġ500": 4880,
      "Ġtom": 4881,
      "ĠtÃ¡": 4882,
      "oub": 4883,
      "ĠMet": 4884,
      "Ġsave": 4885,
      "ĠParty": 4886,
      "Cáº£": 4887,
      "inner": 4888,
      "odes": 4889,
      "Ġbeautiful": 4890,
      "Ġcháº·n": 4891,
      "Ġphiáº¿u": 4892,
      "ĠDem": 4893,
      "iana": 4894,
      "ĠEngland": 4895,
      "Ġconcern": 4896,
      "ĠRetrieved": 4897,
      "ĠPlease": 4898,
      "Ġxáº¡": 4899,
      "Ġbeginning": 4900,
      "Ġscience": 4901,
      "Ġu": 4902,
      "ele": 4903,
      "sen": 4904,
      "akh": 4905,
      "ĠtÃłn": 4906,
      "Ġsea": 4907,
      "Ġbillion": 4908,
      "Ġweap": 4909,
      "orts": 4910,
      "Ġcampaign": 4911,
      "Ġcompan": 4912,
      "má»Ļt": 4913,
      "Ġcomplex": 4914,
      "alleng": 4915,
      "ume": 4916,
      "ĠCamp": 4917,
      "ĠÄĲáº¥t": 4918,
      "Å«": 4919,
      "Ġstep": 4920,
      "Ġnumbers": 4921,
      "Ġsáº¯t": 4922,
      "aker": 4923,
      "ili": 4924,
      "ĠLee": 4925,
      "utions": 4926,
      "ĠBang": 4927,
      "ĠHenry": 4928,
      "ĠlÃŃ": 4929,
      "Ġcommand": 4930,
      "Ġsoft": 4931,
      "ilities": 4932,
      "itting": 4933,
      "ĠCÃ¡c": 4934,
      "Ġchá»¥p": 4935,
      "Ġsize": 4936,
      "Ġxá»©": 4937,
      "Ġdiscovered": 4938,
      "ĠhÃ¹ng": 4939,
      "Ġfore": 4940,
      "Ġtan": 4941,
      "ĠSar": 4942,
      "arria": 4943,
      "ĠHá»ĵi": 4944,
      "ĠyÃªn": 4945,
      "Ġfeet": 4946,
      "ED": 4947,
      "Ġwish": 4948,
      "Ġserious": 4949,
      "Ġbuá»ĵn": 4950,
      "Ġthroughout": 4951,
      "Ġcháº¡m": 4952,
      "Ġ1993": 4953,
      "ĠÃĶng": 4954,
      "Ġplanet": 4955,
      "ades": 4956,
      "Ġnetwork": 4957,
      "aval": 4958,
      "ĠCam": 4959,
      "Æ°á»Ľp": 4960,
      "Ġhang": 4961,
      "ĠBÃ¬nh": 4962,
      "Ġpersonal": 4963,
      "Ġanswer": 4964,
      "ires": 4965,
      "Ġnucle": 4966,
      "Ġphá»ıng": 4967,
      "ĠâĻ«": 4968,
      "Ġappoint": 4969,
      "Ġkháº£o": 4970,
      "ining": 4971,
      "iverse": 4972,
      "BÃłi": 4973,
      "Ġpark": 4974,
      "ĠFin": 4975,
      "istry": 4976,
      "Ġgiá»ıi": 4977,
      "ĠhÃłm": 4978,
      "Ġfinally": 4979,
      "CA": 4980,
      "cean": 4981,
      "ĠArch": 4982,
      "mon": 4983,
      "Ġsun": 4984,
      "Ġpeace": 4985,
      "bs": 4986,
      "..\"}": 4987,
      "ĠthÆ°á»Ľc": 4988,
      "Ġband": 4989,
      "Ġliter": 4990,
      "Ġgets": 4991,
      "ĠHaw": 4992,
      "Ġgold": 4993,
      "Ġdig": 4994,
      "Ġdoll": 4995,
      "Ġquyá»ĥn": 4996,
      "Ġháº¡m": 4997,
      "ĠHiá»ĩp": 4998,
      "Truy": 4999,
      "Ġcompos": 5000,
      "ĠSao": 5001,
      "Rá»ĵi": 5002,
      "Ġinvolved": 5003,
      "Ġdá»įc": 5004,
      "Ġcells": 5005,
      "Ġ35": 5006,
      "Ġtheory": 5007,
      "Ġachie": 5008,
      "Ġterrit": 5009,
      "ĠPhilippines": 5010,
      "eum": 5011,
      "Ġná»Ĺi": 5012,
      "Ġtonight": 5013,
      "Ġplann": 5014,
      "Ġspent": 5015,
      "sych": 5016,
      "Ġexcept": 5017,
      "ibility": 5018,
      "reland": 5019,
      "ears": 5020,
      "Ġdecl": 5021,
      "ĠChÃŃnh": 5022,
      "ChÃ¡u": 5023,
      "Ġbáº¡c": 5024,
      "Ġdáº·m": 5025,
      "ĠKorean": 5026,
      "Ġtáº¯t": 5027,
      "asion": 5028,
      "ĠRom": 5029,
      "Ġhundred": 5030,
      "apore": 5031,
      "ĠIndones": 5032,
      "Ġaction": 5033,
      "ĠNÃ³": 5034,
      "Ġfollowed": 5035,
      "Ġfigure": 5036,
      "Ġfast": 5037,
      "Ġsung": 5038,
      "ĠPoland": 5039,
      "ĠTokyo": 5040,
      "Ġrunning": 5041,
      "ify": 5042,
      "Ġcá»Ŀ": 5043,
      "abor": 5044,
      "Ġsubject": 5045,
      "Ġvá»¡": 5046,
      "Ġlooks": 5047,
      "Ġviol": 5048,
      "Ġáº¡": 5049,
      "ĠVictor": 5050,
      "ĠOk": 5051,
      "Ġsuper": 5052,
      "Ġaddition": 5053,
      "ĠÆ°u": 5054,
      "ĠAfrican": 5055,
      "Ġsel": 5056,
      "ĠAtl": 5057,
      "ĠAh": 5058,
      "CN": 5059,
      "ES": 5060,
      "VÃ¢ng": 5061,
      "Ġstation": 5062,
      "ĠWestern": 5063,
      "Ġapproach": 5064,
      "ĠOs": 5065,
      "ĠThiÃªn": 5066,
      "Ġchuá»Ĺi": 5067,
      "ĠRome": 5068,
      "ĠÄĳáº¡n": 5069,
      "ux": 5070,
      "Ġdog": 5071,
      "ĠTiÃªn": 5072,
      "Ġexperience": 5073,
      "ĠCast": 5074,
      "Ġtruth": 5075,
      "Ġshare": 5076,
      "Ġoxy": 5077,
      "ĠIreland": 5078,
      "Ġfly": 5079,
      "Ġdark": 5080,
      "ĠmÃ©t": 5081,
      "Ġliá»ĩt": 5082,
      "Ġpers": 5083,
      "ores": 5084,
      "ĠHung": 5085,
      "ora": 5086,
      "Ġnháº¹": 5087,
      "ĠAsia": 5088,
      "Ġsite": 5089,
      "ĠInter": 5090,
      "Ġneeded": 5091,
      "bour": 5092,
      "Ġgotta": 5093,
      "500": 5094,
      "leet": 5095,
      "ĠÄĲáº¿": 5096,
      "east": 5097,
      "rav": 5098,
      "Ġvalue": 5099,
      "cast": 5100,
      "ĠMany": 5101,
      "Ġtarg": 5102,
      "ĠOt": 5103,
      "inary": 5104,
      "Ġcities": 5105,
      "LÃºc": 5106,
      "ĠSpanish": 5107,
      "Ġhoang": 5108,
      "verage": 5109,
      "ĠJul": 5110,
      "Ġtá»ķn": 5111,
      "fra": 5112,
      "Ġmarria": 5113,
      "Ġ1944": 5114,
      "ĠScot": 5115,
      "board": 5116,
      "ĠOur": 5117,
      "Ġrights": 5118,
      "ĠMusic": 5119,
      "Ġngáº§m": 5120,
      "Ġlan": 5121,
      "ĠGet": 5122,
      "hich": 5123,
      "Ġanimals": 5124,
      "ĠDNA": 5125,
      "ĠTex": 5126,
      "Ġbroad": 5127,
      "iro": 5128,
      "iment": 5129,
      "Ġsurface": 5130,
      "Ġswe": 5131,
      "ĠBC": 5132,
      "Ġthemselves": 5133,
      "ÃŃa": 5134,
      "Ġriver": 5135,
      "ĠIran": 5136,
      "ĠphÃ¡i": 5137,
      "Ġtá»ĳng": 5138,
      "ebr": 5139,
      "ThÃ¡ng": 5140,
      "Ġmurder": 5141,
      "krain": 5142,
      "astern": 5143,
      "Ġeat": 5144,
      "Ġchanges": 5145,
      "inct": 5146,
      "Ġhor": 5147,
      "Ġexec": 5148,
      "Ġrate": 5149,
      "ĠEr": 5150,
      "ĠgiÃłu": 5151,
      "Ġcáº·p": 5152,
      "Ġfine": 5153,
      "Ġsigned": 5154,
      "ĠgiÃ¢y": 5155,
      "Ġdá»ĳi": 5156,
      "VÃŃ": 5157,
      "Ġhigher": 5158,
      "ĠkÃªnh": 5159,
      "Ġháº¹n": 5160,
      "Ġthuáº¿": 5161,
      "Ġfounded": 5162,
      "Ġwhether": 5163,
      "iction": 5164,
      "Ġváº¿t": 5165,
      "add": 5166,
      "ogle": 5167,
      "Ġaward": 5168,
      "ĠLo": 5169,
      "ĠPlay": 5170,
      "CO": 5171,
      "reet": 5172,
      "Ġreached": 5173,
      "Ġarg": 5174,
      "Ġforeign": 5175,
      "ÃĢ": 5176,
      "ĠRob": 5177,
      "Ġneigh": 5178,
      "Ġbur": 5179,
      "ged": 5180,
      "ye": 5181,
      "ĠChampions": 5182,
      "ĠSingapore": 5183,
      "Ġhuyá»ĩn": 5184,
      "ĠStud": 5185,
      "Ġung": 5186,
      "ĠbáºŃt": 5187,
      "Ġterms": 5188,
      "Ġtha": 5189,
      "Ġláº§m": 5190,
      "ĠSum": 5191,
      "Ġsafe": 5192,
      "view": 5193,
      "ĠÐ": 5194,
      "ira": 5195,
      "iation": 5196,
      "ĠEmpire": 5197,
      "Ġcáº¥m": 5198,
      "Ġbank": 5199,
      "Ġcurrent": 5200,
      "imb": 5201,
      "Ġallowed": 5202,
      "urs": 5203,
      "NÃªn": 5204,
      "ĠGroup": 5205,
      "Ġaud": 5206,
      "Ġthiá»ĩt": 5207,
      "Ġkhá»ĳi": 5208,
      "ĠPeter": 5209,
      "ston": 5210,
      "Ġ1940": 5211,
      "ĠxÆ°Æ¡ng": 5212,
      "aka": 5213,
      "like": 5214,
      "Ġtrade": 5215,
      "ĠBu": 5216,
      "Ġturned": 5217,
      "ĠRev": 5218,
      "?\\\"\"}": 5219,
      "Ġpoor": 5220,
      "Ġoil": 5221,
      "ĠJew": 5222,
      "Ġbed": 5223,
      "Ġdistrib": 5224,
      "Ġtouch": 5225,
      "ĠmÆ°a": 5226,
      "ĠMer": 5227,
      "ĠtháºŃn": 5228,
      "Má»Ĺi": 5229,
      "aries": 5230,
      "Ġ1989": 5231,
      "ĠquÃ¡n": 5232,
      "Ġplant": 5233,
      "Ġtháº©m": 5234,
      "AN": 5235,
      "ĠGood": 5236,
      "ĠgiÃ³": 5237,
      "Ġprotein": 5238,
      "Ġbase": 5239,
      "Ġá»ĳng": 5240,
      "Ġmic": 5241,
      "Ġdesigned": 5242,
      "Ġstudents": 5243,
      "Cuá»ĳi": 5244,
      "ĠtrÃŃch": 5245,
      "ĠgÃ³c": 5246,
      "ĠIts": 5247,
      "Ġtáº¡m": 5248,
      "ĠDistrict": 5249,
      "cul": 5250,
      "áºŃc": 5251,
      "Ġrisk": 5252,
      "Ġcontract": 5253,
      "Ġevidence": 5254,
      "ĠLatin": 5255,
      "ĠvÄ©": 5256,
      "Ġhappens": 5257,
      "Ġniá»ģm": 5258,
      "ĠTa": 5259,
      "ufact": 5260,
      "olic": 5261,
      "ĠLong": 5262,
      "chan": 5263,
      "ĠthÄĥng": 5264,
      "ga": 5265,
      "Ġmath": 5266,
      "Ġsearch": 5267,
      "ĠOther": 5268,
      "ĠEven": 5269,
      "75": 5270,
      "ĠUkrain": 5271,
      "ĠRussia": 5272,
      "Ġ300": 5273,
      "ĠTriá»ģu": 5274,
      "Ġhom": 5275,
      "Ġdeterm": 5276,
      "Ġlower": 5277,
      "Ġrelated": 5278,
      "ĠthÃ¡c": 5279,
      "Ġtransfer": 5280,
      "Ġlived": 5281,
      "Ġeasy": 5282,
      "Ġcontact": 5283,
      "Ġlay": 5284,
      "ĠMax": 5285,
      "Ġadminist": 5286,
      "stein": 5287,
      "âĢĿ.\"}": 5288,
      "ĠRichard": 5289,
      "Ġcel": 5290,
      "Ġsimple": 5291,
      "ĠSaint": 5292,
      "ĠQueen": 5293,
      "ĠHel": 5294,
      "Ġbá»¥": 5295,
      "ĠngÃłn": 5296,
      "ĠBol": 5297,
      "IS": 5298,
      "Ġrecorded": 5299,
      "AR": 5300,
      "Ġseems": 5301,
      "ĠthÃ¡nh": 5302,
      "ĠBo": 5303,
      "ster": 5304,
      "Ġreve": 5305,
      "Ngay": 5306,
      "ĠÄĳá»©c": 5307,
      "Ġtrá»ĳng": 5308,
      "ĠHave": 5309,
      "ĠbÃ£i": 5310,
      "ĠJim": 5311,
      "antic": 5312,
      "Ġremained": 5313,
      "ĠRoyal": 5314,
      "Ġ1942": 5315,
      "Ã©n": 5316,
      "¦y": 5317,
      "tÃ´i": 5318,
      "Ġcommer": 5319,
      "Ġgirls": 5320,
      "ĠÅ": 5321,
      "Sh": 5322,
      "OS": 5323,
      "itiz": 5324,
      "Ġcompletely": 5325,
      "Ġcourt": 5326,
      "ĠØ": 5327,
      "mit": 5328,
      "ĠgiÃ¡p": 5329,
      "ÄĲÃºng": 5330,
      "Ġtomorrow": 5331,
      "Ġtáº·ng": 5332,
      "ĠthÃ¡ch": 5333,
      "ette": 5334,
      "ĠNiger": 5335,
      "Ġgáº¯n": 5336,
      "Ġmm": 5337,
      "ĠkhÃ³a": 5338,
      "ĠSecond": 5339,
      "ĠCont": 5340,
      "Ġpres": 5341,
      "Ġpull": 5342,
      "ĠcháºŃm": 5343,
      "ĠAp": 5344,
      "Ġevents": 5345,
      "Ġfavor": 5346,
      "ĠTw": 5347,
      "Ġparticular": 5348,
      "Ġsecurity": 5349,
      "ĠUnd": 5350,
      "Ġdraw": 5351,
      "29": 5352,
      "Ġtháº£i": 5353,
      "ĠDep": 5354,
      "ER": 5355,
      "ounded": 5356,
      "ĠZeal": 5357,
      "ĠQuÃ¢n": 5358,
      "Ġdisease": 5359,
      "ications": 5360,
      "Ġmedia": 5361,
      "ĠphÃ³": 5362,
      "26": 5363,
      "Ġways": 5364,
      "can": 5365,
      "ĠArgentina": 5366,
      "rosoft": 5367,
      "ĠKen": 5368,
      "ĠColle": 5369,
      "Ġhiáº¿n": 5370,
      "ĠchÃ³ng": 5371,
      "rol": 5372,
      "Ġhighest": 5373,
      "hood": 5374,
      "Ġvac": 5375,
      "Ġpen": 5376,
      "ĠBattle": 5377,
      "áº³n": 5378,
      "time": 5379,
      "ĠPac": 5380,
      "ership": 5381,
      "ĠChile": 5382,
      "ĠRh": 5383,
      "Ġculture": 5384,
      "Ġservices": 5385,
      "iá»ĩng": 5386,
      "ĠMinh": 5387,
      "ĠFC": 5388,
      "CÆ°á»Ŀi": 5389,
      "Ġdanger": 5390,
      "oáº¡i": 5391,
      "ĪĴ": 5392,
      "ification": 5393,
      "Ġgenerally": 5394,
      "Ġmeeting": 5395,
      "ĠGh": 5396,
      "Ġcaused": 5397,
      "Ġvong": 5398,
      "ĠZealand": 5399,
      "Ãºy": 5400,
      "come": 5401,
      "Ġapproxim": 5402,
      "ĠMount": 5403,
      "Ġeventually": 5404,
      "rum": 5405,
      "Ġlá»ĳi": 5406,
      "ĠbáºŃc": 5407,
      "Ġngáº¡c": 5408,
      "asons": 5409,
      "Pháº§n": 5410,
      "Ġcompanies": 5411,
      "irl": 5412,
      "Báº£n": 5413,
      "ĠLib": 5414,
      "ĠItaly": 5415,
      "ĠcÃ£i": 5416,
      "Ġhospital": 5417,
      "Ġbáº£y": 5418,
      "itect": 5419,
      "ado": 5420,
      "omer": 5421,
      "ela": 5422,
      "Ġdoor": 5423,
      "ĠchÃ¡y": 5424,
      "Ġreb": 5425,
      "ĠKar": 5426,
      "Ġworth": 5427,
      "Ġhá»Ļp": 5428,
      "ĠPolish": 5429,
      "ĠcÃł": 5430,
      "ĠSea": 5431,
      "mm": 5432,
      "ThÃłnh": 5433,
      "ocr": 5434,
      "gt": 5435,
      "Ġer": 5436,
      "Ġthai": 5437,
      "ĠhoÃ¡": 5438,
      "ĠChá»§": 5439,
      "Ġpath": 5440,
      "ĠMod": 5441,
      "Ġmoving": 5442,
      "da": 5443,
      "Ġrout": 5444,
      "usion": 5445,
      "Ġfocus": 5446,
      "iot": 5447,
      "ĠhÆ°": 5448,
      "Ġsyn": 5449,
      "ĠnÃ©m": 5450,
      "ĠStar": 5451,
      "ector": 5452,
      "ĠBor": 5453,
      "ĠtÄ©nh": 5454,
      "Ġtransport": 5455,
      "ĠtÃ´": 5456,
      "Ġcá»©ng": 5457,
      "Ã¬a": 5458,
      "TV": 5459,
      "ken": 5460,
      "ibly": 5461,
      "Ġappeared": 5462,
      "ĠLuc": 5463,
      "ĠHÃł": 5464,
      "ext": 5465,
      "ĠcÆ°á»Ľp": 5466,
      "Ġtor": 5467,
      "Ġfix": 5468,
      "Ġgiá»įng": 5469,
      "Ġindustry": 5470,
      "Ġgod": 5471,
      "Ġloss": 5472,
      "ĠColomb": 5473,
      "Ġdocum": 5474,
      "Ġclean": 5475,
      "ĠÆ¡i": 5476,
      "ĠHu": 5477,
      "Ġimmedi": 5478,
      "Ġnature": 5479,
      "Ġmeaning": 5480,
      "ĠEdward": 5481,
      "Ġchalleng": 5482,
      "ĠFed": 5483,
      "Ġearth": 5484,
      "ĠDu": 5485,
      "Ġmiles": 5486,
      "Ġcenter": 5487,
      "Ġstructure": 5488,
      "ĠDi": 5489,
      "rid": 5490,
      "Ġmarriage": 5491,
      "ference": 5492,
      "emat": 5493,
      "á»ĭp": 5494,
      "raq": 5495,
      "Ġbene": 5496,
      "Ġdate": 5497,
      "Ġgas": 5498,
      "khÃ´ng": 5499,
      "Ġjud": 5500,
      "Ġnames": 5501,
      "Ġtiá»ĩc": 5502,
      "Ġanymore": 5503,
      "Ġalive": 5504,
      "Ġ.": 5505,
      "Ġeth": 5506,
      "Ġbox": 5507,
      "ĠFil": 5508,
      "Ġcontrib": 5509,
      "ho": 5510,
      "Ġkhá»ķ": 5511,
      "ĠDev": 5512,
      "ĠdÆ°á»¡ng": 5513,
      "Ġprivate": 5514,
      "ĠGoogle": 5515,
      "ĠGold": 5516,
      "Chuyá»ĩn": 5517,
      "ĠMalays": 5518,
      "Ġprinc": 5519,
      "Ġvisit": 5520,
      "ĠÃ¡c": 5521,
      "Ġord": 5522,
      "Ġdom": 5523,
      "ĠKinh": 5524,
      "wa": 5525,
      "ĠlÆ°á»Ľi": 5526,
      "enz": 5527,
      "Ġ1930": 5528,
      "Ġmine": 5529,
      "atively": 5530,
      "Ġ^": 5531,
      "rich": 5532,
      "ĠlÆ°Æ¡ng": 5533,
      "ĠCharl": 5534,
      "Ġcurrently": 5535,
      "key": 5536,
      "ĠrÃ£i": 5537,
      "Ġdeliver": 5538,
      "Ġ185": 5539,
      "Ã¨m": 5540,
      "Ġtroops": 5541,
      "Ġstage": 5542,
      "ĠÄĳÃ²i": 5543,
      "Ġmiá»ĩng": 5544,
      "áº¥c": 5545,
      "IN": 5546,
      "Ġcháº¥m": 5547,
      "Ġtreatment": 5548,
      "Ġprec": 5549,
      "Ġgáº¥p": 5550,
      "iáº¿c": 5551,
      "Ġmission": 5552,
      "ĠItalian": 5553,
      "eta": 5554,
      "Ġsáº¡ch": 5555,
      "aki": 5556,
      "á»Ļm": 5557,
      "illa": 5558,
      "Ġshall": 5559,
      "Ġestim": 5560,
      "Ġ1943": 5561,
      "Ġcru": 5562,
      "Ġmanufact": 5563,
      "ĠThÆ°á»£ng": 5564,
      "á»©t": 5565,
      "ĠlÆ°á»£t": 5566,
      "sk": 5567,
      "28": 5568,
      "Ġ45": 5569,
      "Ġthang": 5570,
      "pression": 5571,
      "Ġcarry": 5572,
      "Ġrule": 5573,
      "Ġwrite": 5574,
      "upt": 5575,
      "ĠnhÃ¡nh": 5576,
      "hy": 5577,
      "Ġleaving": 5578,
      "Ġperformed": 5579,
      "Ġmat": 5580,
      "ĠAngeles": 5581,
      "Ġconcept": 5582,
      "á»ĭnh": 5583,
      "Ġpsych": 5584,
      "ĠScotland": 5585,
      "Ġglobal": 5586,
      "ĠbÃ²": 5587,
      "arian": 5588,
      "Ġshows": 5589,
      "Ġfrequ": 5590,
      "hab": 5591,
      "Ġtelling": 5592,
      "ĠCarol": 5593,
      "ĠÄĳÆ°Æ¡": 5594,
      "ĠLord": 5595,
      "Ġcháº·t": 5596,
      "Oh": 5597,
      "itan": 5598,
      "Ġoccup": 5599,
      "ĠMel": 5600,
      "Ġcarbon": 5601,
      "Ġdefin": 5602,
      "Ġsource": 5603,
      "Ġacid": 5604,
      "ĠTexas": 5605,
      "een": 5606,
      "Ġbelong": 5607,
      "over": 5608,
      "others": 5609,
      "kn": 5610,
      "ĠvÆ°á»Ŀn": 5611,
      "ĠBoy": 5612,
      "Ġfelt": 5613,
      "ĠHam": 5614,
      "Ġmedical": 5615,
      "Ġnecess": 5616,
      "ila": 5617,
      "Ġburn": 5618,
      "Ġnob": 5619,
      "emic": 5620,
      "ĠSuper": 5621,
      "Ġborder": 5622,
      "Ġwhatever": 5623,
      "ĠÄĲÃ³": 5624,
      "Thá»±c": 5625,
      "ĠtiÃªm": 5626,
      "Ġga": 5627,
      "Ġfeatures": 5628,
      "lict": 5629,
      "Ġtowards": 5630,
      "ashi": 5631,
      "amin": 5632,
      "ounter": 5633,
      "Ġmix": 5634,
      "ĠAz": 5635,
      "Ġfarm": 5636,
      "elled": 5637,
      "izing": 5638,
      "ĠTy": 5639,
      "Ġconsider": 5640,
      "Ġones": 5641,
      "ĠLaw": 5642,
      "Ġintroduced": 5643,
      "ĠIndonesia": 5644,
      "book": 5645,
      "47": 5646,
      "Ġviá»ħn": 5647,
      "Cl": 5648,
      "Ġchoice": 5649,
      "pped": 5650,
      "ĠTor": 5651,
      "itude": 5652,
      "ĠtÃ³c": 5653,
      "Ġhi": 5654,
      "Ġhiáº¿m": 5655,
      "ĠIndian": 5656,
      "Ġaccording": 5657,
      "Ġopened": 5658,
      "Ġextrem": 5659,
      "35": 5660,
      "90": 5661,
      "ĠthÃ¡p": 5662,
      "oes": 5663,
      "Ġfamous": 5664,
      "Ġwebs": 5665,
      "Ġsituation": 5666,
      "ÄĲÃ£": 5667,
      "Ġcá»±u": 5668,
      "Ġfear": 5669,
      "Ġvinh": 5670,
      "oáº£ng": 5671,
      "ĠFrancisco": 5672,
      "Ġspread": 5673,
      "Ġadop": 5674,
      "ĠUnder": 5675,
      "erry": 5676,
      "ĠtÃ¹y": 5677,
      "Ġemerg": 5678,
      "Ġcorr": 5679,
      "Ġprovide": 5680,
      "Ġdiscuss": 5681,
      "unicip": 5682,
      "Ġaverage": 5683,
      "Ġconsist": 5684,
      "igr": 5685,
      "Ġworry": 5686,
      "reater": 5687,
      "Ġsummer": 5688,
      "Ġhop": 5689,
      "Ġlink": 5690,
      "ĠmÅ©i": 5691,
      "ĠkhÃ¡i": 5692,
      "ĠDÃ¢n": 5693,
      "Ġtrib": 5694,
      "uman": 5695,
      "ĠMicrosoft": 5696,
      "Ġtháº§y": 5697,
      "ĠSa": 5698,
      "Ġfeed": 5699,
      "Ġfollow": 5700,
      "ĠKy": 5701,
      "Ġsal": 5702,
      "ĠPre": 5703,
      "ĠForce": 5704,
      "ĠÄĳua": 5705,
      "Ġpowerful": 5706,
      "Ġaw": 5707,
      "Ġfemale": 5708,
      "isions": 5709,
      "eless": 5710,
      "ova": 5711,
      "Ġbehav": 5712,
      "ĠNhÃ¢n": 5713,
      "aga": 5714,
      "Ġperfect": 5715,
      "Ġdisapp": 5716,
      "Ġthua": 5717,
      "right": 5718,
      "ĠCouncil": 5719,
      "anced": 5720,
      "Ġgrowth": 5721,
      "48": 5722,
      "ĠUh": 5723,
      "ĠAv": 5724,
      "aine": 5725,
      "Ġlanguages": 5726,
      "Ġincrease": 5727,
      "Ġmovement": 5728,
      "ĠCour": 5729,
      "Ġtraditional": 5730,
      "Ġsens": 5731,
      "iled": 5732,
      "ĠIraq": 5733,
      "Ġrap": 5734,
      "ĠChristian": 5735,
      "Ġships": 5736,
      "Ġpháº¡t": 5737,
      "Ġleading": 5738,
      "ja": 5739,
      "olk": 5740,
      "Ġround": 5741,
      "ims": 5742,
      "Ġallow": 5743,
      "ĠchÃło": 5744,
      "Ġnghá»ģ": 5745,
      "Ġbooks": 5746,
      "Ġinvestig": 5747,
      "iqu": 5748,
      "ĠhÃ²n": 5749,
      "Ġbelieved": 5750,
      "west": 5751,
      "ĠMat": 5752,
      "Ġfish": 5753,
      "ĠCath": 5754,
      "Ġregard": 5755,
      "Ġarrived": 5756,
      "Ġmachine": 5757,
      "Ġhurt": 5758,
      "ĠSong": 5759,
      "Ġstandard": 5760,
      "Ġmeant": 5761,
      "arliam": 5762,
      "Ġinn": 5763,
      "Ġperformance": 5764,
      "Ġgiving": 5765,
      "Ġgradu": 5766,
      "Ġwhose": 5767,
      "CÃ¢u": 5768,
      "iano": 5769,
      "ĠMas": 5770,
      "ĠThomas": 5771,
      "ĠIslands": 5772,
      "ĠNap": 5773,
      "razy": 5774,
      "Ġprofessional": 5775,
      "ĠWhite": 5776,
      "Ġmiddle": 5777,
      "aded": 5778,
      "Ġmist": 5779,
      "ĠPrince": 5780,
      "ĠSee": 5781,
      "71": 5782,
      "âĻ": 5783,
      "Ġprevent": 5784,
      "Ġthank": 5785,
      "ĠVirgin": 5786,
      "egr": 5787,
      "ĠnghÃ¨o": 5788,
      "ĠNavy": 5789,
      "ori": 5790,
      "ĠSur": 5791,
      "Ġtrá»ĵng": 5792,
      "ĠThank": 5793,
      "Ġ1988": 5794,
      "Ġmaterial": 5795,
      "ĠkÃªu": 5796,
      "Ġninh": 5797,
      "Ġpicture": 5798,
      "azine": 5799,
      "Ġsurpr": 5800,
      "ĠRos": 5801,
      "ĠSu": 5802,
      "Ġden": 5803,
      "Ġaren": 5804,
      "Ġdebut": 5805,
      "Ġcáº£ng": 5806,
      "ĠOnly": 5807,
      "Ġincreased": 5808,
      "ĠngÆ°Æ¡": 5809,
      "Ġdistrict": 5810,
      "Ġrank": 5811,
      "ota": 5812,
      "oles": 5813,
      "Ġattention": 5814,
      "nes": 5815,
      "joy": 5816,
      "ĠPak": 5817,
      "ittee": 5818,
      "ĠHong": 5819,
      "ĠUSD": 5820,
      "Ġnovel": 5821,
      "Ġgoal": 5822,
      "Ġ1986": 5823,
      "oi": 5824,
      "ĠBáº£o": 5825,
      "Ġet": 5826,
      "ĠAth": 5827,
      "Ġpressure": 5828,
      "Ġlose": 5829,
      "ĠdÆ°á»Ŀng": 5830,
      "Ġngá»įn": 5831,
      "Ġmá»ı": 5832,
      "ĠGreen": 5833,
      "ĠDay": 5834,
      "Ġproducts": 5835,
      "ĠÄĳá»Ľi": 5836,
      "Ġbott": 5837,
      "arliament": 5838,
      "Ġtháº£": 5839,
      "Ġlarger": 5840,
      "Ġkilomet": 5841,
      "rel": 5842,
      "Ġá»ķng": 5843,
      "ĠHa": 5844,
      "Ġoperations": 5845,
      "ez": 5846,
      "Ġactive": 5847,
      "ography": 5848,
      "Ġindividual": 5849,
      "Ġdirector": 5850,
      "Ġquestions": 5851,
      "Ġlikely": 5852,
      "ĠÄĳá»ĳt": 5853,
      "fl": 5854,
      "Ġancient": 5855,
      "Ġdream": 5856,
      "Ba": 5857,
      "enez": 5858,
      "urb": 5859,
      "ancy": 5860,
      "Ġparticularly": 5861,
      "aire": 5862,
      "Ġcry": 5863,
      "Ġsend": 5864,
      "Ġchurch": 5865,
      "ĠThÃłnh": 5866,
      "NgÆ°Æ¡i": 5867,
      "annel": 5868,
      "Ġhá»ĵn": 5869,
      "Ġop": 5870,
      "ĠhÆ°Æ¡ng": 5871,
      "ĠTown": 5872,
      "Ġhair": 5873,
      "Ġlooked": 5874,
      "Ġincludes": 5875,
      "ĠtrÃº": 5876,
      "ĠHall": 5877,
      "ĠNic": 5878,
      "ĠnÃłng": 5879,
      "ĠCommun": 5880,
      "ĠRam": 5881,
      "ĠKong": 5882,
      "Ġmáº¡c": 5883,
      "ĠRight": 5884,
      "Ġmention": 5885,
      "atives": 5886,
      "Ġsomebody": 5887,
      "Ġearlier": 5888,
      "Ġremain": 5889,
      "Ġwaiting": 5890,
      "asty": 5891,
      "ĠInstit": 5892,
      "eng": 5893,
      "Ġdoctor": 5894,
      "Ġcool": 5895,
      "Ġdecision": 5896,
      "Ð°": 5897,
      "Ġsociety": 5898,
      "Ġkhuáº©n": 5899,
      "inger": 5900,
      "ĠHá»ĵng": 5901,
      "ĠGreek": 5902,
      "Ġwriting": 5903,
      "ĠAcad": 5904,
      "Vá»ģ": 5905,
      "ĠAk": 5906,
      "Ġeffects": 5907,
      "Chá»ĭ": 5908,
      "ĠStr": 5909,
      "ĠViá»ĩn": 5910,
      "ĠPat": 5911,
      "Ġconduct": 5912,
      "Ġnormal": 5913,
      "Ġapproximately": 5914,
      "TrÃªn": 5915,
      "ĠThá»ķ": 5916,
      "Ġtext": 5917,
      "Ġspir": 5918,
      "Ġplaces": 5919,
      "Ġfighting": 5920,
      "astic": 5921,
      "Ġconstruction": 5922,
      "Ġopportun": 5923,
      "Ġá»¦y": 5924,
      "ĠRy": 5925,
      "ĠghÃ©t": 5926,
      "fri": 5927,
      "Ġslow": 5928,
      "Ġpaper": 5929,
      "Ġphysical": 5930,
      "ĠgiáºŃn": 5931,
      "Láº§n": 5932,
      "ider": 5933,
      "Hiá»ĩn": 5934,
      "ĠRad": 5935,
      "Ġgiáº£ng": 5936,
      "Ġconditions": 5937,
      "fraid": 5938,
      "Ġpháº«u": 5939,
      "ĠCuba": 5940,
      "ĠLove": 5941,
      "known": 5942,
      "Ġafraid": 5943,
      "Ã±": 5944,
      "Ġconsum": 5945,
      "erved": 5946,
      "ĠTake": 5947,
      "Ġscreen": 5948,
      "36": 5949,
      "Ġcitiz": 5950,
      "wan": 5951,
      "ĠChurch": 5952,
      "ellig": 5953,
      "Ġability": 5954,
      "Ġ180": 5955,
      "ĠTod": 5956,
      "Ká»ĥ": 5957,
      "Ġ1920": 5958,
      "Ġhoáº£ng": 5959,
      "rier": 5960,
      "Ġláº»": 5961,
      "ii": 5962,
      "ĠCounty": 5963,
      "Ġcode": 5964,
      "Ġcáº£n": 5965,
      "Ġwestern": 5966,
      "Ġstrength": 5967,
      "ĠPacific": 5968,
      "ghan": 5969,
      "Ġdetail": 5970,
      "99": 5971,
      "Ġngang": 5972,
      "MS": 5973,
      "á»ª": 5974,
      "Ġpiece": 5975,
      "ĠÄĲÃło": 5976,
      "Ġstories": 5977,
      "Ġtáº£ng": 5978,
      "Ġtrouble": 5979,
      "Ġproduce": 5980,
      "ault": 5981,
      "ĠCa": 5982,
      "Ġforms": 5983,
      "Ġmer": 5984,
      "ĠkhuÃ´n": 5985,
      "esis": 5986,
      "Ġphe": 5987,
      "Ġleader": 5988,
      "Ġdro": 5989,
      "aria": 5990,
      "Ġliá»ģn": 5991,
      "Ġextra": 5992,
      "ternal": 5993,
      "ĠthÆ°á»£ng": 5994,
      "ĠBob": 5995,
      "100": 5996,
      "Ġheavy": 5997,
      "wide": 5998,
      "Ġkhá»©": 5999
    },
    "merges": [
      [
        "Ġ",
        "t"
      ],
      [
        "á",
        "»"
      ],
      [
        "u",
        "t"
      ],
      [
        "n",
        "g"
      ],
      [
        "á",
        "º"
      ],
      [
        "Ġ",
        "c"
      ],
      [
        "a",
        "n"
      ],
      [
        "Ġt",
        "h"
      ],
      [
        "p",
        "ut"
      ],
      [
        ":",
        "\""
      ],
      [
        "\"",
        ":\""
      ],
      [
        "i",
        "n"
      ],
      [
        "a",
        "t"
      ],
      [
        ".",
        "\""
      ],
      [
        "e",
        "s"
      ],
      [
        "Ġ",
        "Ä"
      ],
      [
        "ĠÄ",
        "ĳ"
      ],
      [
        "Ã",
        "ł"
      ],
      [
        "Ġt",
        "o"
      ],
      [
        "Ġ",
        "n"
      ],
      [
        "e",
        "t"
      ],
      [
        "a",
        "m"
      ],
      [
        "Ġ",
        "s"
      ],
      [
        "Ġ",
        "h"
      ],
      [
        "Ġ",
        "l"
      ],
      [
        "at",
        "e"
      ],
      [
        "Ġ",
        "b"
      ],
      [
        "Ġ",
        "m"
      ],
      [
        "o",
        "ut"
      ],
      [
        "T",
        "r"
      ],
      [
        "Ġ",
        "V"
      ],
      [
        "e",
        "r"
      ],
      [
        "es",
        "e"
      ],
      [
        "an",
        "s"
      ],
      [
        "Ġ",
        "v"
      ],
      [
        "ĠV",
        "i"
      ],
      [
        ",",
        "\""
      ],
      [
        "l",
        "ate"
      ],
      [
        "n",
        "am"
      ],
      [
        "ĠVi",
        "et"
      ],
      [
        "ĠViet",
        "nam"
      ],
      [
        "Tr",
        "ans"
      ],
      [
        "ĠVietnam",
        "ese"
      ],
      [
        "out",
        "put"
      ],
      [
        "in",
        "put"
      ],
      [
        "Trans",
        "late"
      ],
      [
        "{",
        "\""
      ],
      [
        "č",
        "Ċ"
      ],
      [
        "Æ",
        "°"
      ],
      [
        "o",
        "n"
      ],
      [
        ".\"",
        ",\""
      ],
      [
        "Ġth",
        "e"
      ],
      [
        "Ġ",
        "a"
      ],
      [
        ".\"",
        "}"
      ],
      [
        "Ã",
        "¡"
      ],
      [
        "Ã",
        "´"
      ],
      [
        "Ġc",
        "h"
      ],
      [
        "Ġ",
        "p"
      ],
      [
        "Ġ",
        "w"
      ],
      [
        "Ġ",
        "k"
      ],
      [
        "Ġ",
        "d"
      ],
      [
        "Ġ",
        "g"
      ],
      [
        "o",
        "r"
      ],
      [
        "Ġt",
        "r"
      ],
      [
        "e",
        "n"
      ],
      [
        "Æ°",
        "á»"
      ],
      [
        "Ã",
        "³"
      ],
      [
        "o",
        "u"
      ],
      [
        "i",
        "s"
      ],
      [
        "áº",
        "¿"
      ],
      [
        "i",
        "á»"
      ],
      [
        "Ġn",
        "h"
      ],
      [
        "e",
        "d"
      ],
      [
        "Ġ",
        "r"
      ],
      [
        "i",
        "t"
      ],
      [
        "Ġ",
        "o"
      ],
      [
        "a",
        "r"
      ],
      [
        "á»",
        "Ļ"
      ],
      [
        "n",
        "h"
      ],
      [
        "Ġ",
        "an"
      ],
      [
        "Ġ",
        "f"
      ],
      [
        "Ġk",
        "h"
      ],
      [
        "a",
        "l"
      ],
      [
        "áº",
        "¡"
      ],
      [
        "i",
        "ng"
      ],
      [
        "Ġ",
        "ng"
      ],
      [
        "Ġo",
        "f"
      ],
      [
        "áº",
        "£"
      ],
      [
        "Ġ",
        "in"
      ],
      [
        "Ġ",
        "I"
      ],
      [
        "Ġv",
        "Ãł"
      ],
      [
        "Ã",
        "ª"
      ],
      [
        "áº",
        "¥"
      ],
      [
        "Ġl",
        "Ãł"
      ],
      [
        "Ġc",
        "á»"
      ],
      [
        "Ã´",
        "ng"
      ],
      [
        "Ġ",
        "T"
      ],
      [
        "Ġp",
        "h"
      ],
      [
        "á»",
        "ĳ"
      ],
      [
        "a",
        "s"
      ],
      [
        "c",
        "h"
      ],
      [
        "Ã",
        "¢"
      ],
      [
        "Ġan",
        "d"
      ],
      [
        "r",
        "e"
      ],
      [
        "o",
        "m"
      ],
      [
        "Ġ",
        "S"
      ],
      [
        "Ġ",
        "A"
      ],
      [
        "§",
        "a"
      ],
      [
        "Ġcá»",
        "§a"
      ],
      [
        "áº",
        "Ń"
      ],
      [
        "Ġ",
        "y"
      ],
      [
        "e",
        "l"
      ],
      [
        "Ã",
        "¬"
      ],
      [
        "Ãª",
        "n"
      ],
      [
        "Ġ",
        "1"
      ],
      [
        "Ġv",
        "á»"
      ],
      [
        "Ġ",
        "C"
      ],
      [
        "a",
        "y"
      ],
      [
        "á»Ļ",
        "t"
      ],
      [
        "i",
        "on"
      ],
      [
        "Ġth",
        "á»"
      ],
      [
        "i",
        "c"
      ],
      [
        "i",
        "l"
      ],
      [
        "ĠÄĳ",
        "á»"
      ],
      [
        "q",
        "u"
      ],
      [
        "Ã´",
        "i"
      ],
      [
        "Æ°á»",
        "£"
      ],
      [
        "Ã¡",
        "c"
      ],
      [
        "i",
        "áº¿"
      ],
      [
        "o",
        "ng"
      ],
      [
        "u",
        "s"
      ],
      [
        "iá»",
        "ĩ"
      ],
      [
        "Ġm",
        "á»Ļt"
      ],
      [
        "Ġ",
        "M"
      ],
      [
        "Ġy",
        "ou"
      ],
      [
        "ĠT",
        "h"
      ],
      [
        "Æ",
        "¡"
      ],
      [
        "Ã",
        "£"
      ],
      [
        "áº",
        "§"
      ],
      [
        "Ġc",
        "Ã³"
      ],
      [
        "Ã",
        "º"
      ],
      [
        "Ľ",
        "i"
      ],
      [
        "Ġ",
        "qu"
      ],
      [
        "Æ°á»",
        "Ŀ"
      ],
      [
        "\\",
        "\""
      ],
      [
        "Ġt",
        "á»"
      ],
      [
        "Æ°á»£",
        "c"
      ],
      [
        "Ä",
        "ĥ"
      ],
      [
        "o",
        "t"
      ],
      [
        "Ġ",
        "B"
      ],
      [
        "o",
        "w"
      ],
      [
        "l",
        "e"
      ],
      [
        "en",
        "t"
      ],
      [
        "ĠÄĳ",
        "Æ°á»£c"
      ],
      [
        "Ġg",
        "i"
      ],
      [
        "Ġ",
        "H"
      ],
      [
        "Ġ",
        "e"
      ],
      [
        "Ã",
        "Ń"
      ],
      [
        "?",
        "\""
      ],
      [
        "v",
        "e"
      ],
      [
        "á»",
        "į"
      ],
      [
        "Ġkh",
        "Ã´ng"
      ],
      [
        "á»",
        "Ł"
      ],
      [
        "i",
        "m"
      ],
      [
        "áº¡",
        "i"
      ],
      [
        "áº¥",
        "t"
      ],
      [
        "o",
        "l"
      ],
      [
        "Ġ",
        "2"
      ],
      [
        "e",
        "c"
      ],
      [
        "i",
        "d"
      ],
      [
        "Ġ",
        "is"
      ],
      [
        "Ġ",
        "N"
      ],
      [
        "u",
        "y"
      ],
      [
        "Ãł",
        "y"
      ],
      [
        "á»",
        "¯"
      ],
      [
        "Ġ",
        "P"
      ],
      [
        "a",
        "d"
      ],
      [
        "l",
        "y"
      ],
      [
        "ĠÄĳ",
        "Ã£"
      ],
      [
        "'",
        "s"
      ],
      [
        "u",
        "r"
      ],
      [
        "o",
        "s"
      ],
      [
        "Ġ",
        "x"
      ],
      [
        ".",
        "."
      ],
      [
        "Ġ",
        "("
      ],
      [
        "Ġ",
        "on"
      ],
      [
        "Ġw",
        "h"
      ],
      [
        "Ġ",
        "W"
      ],
      [
        "i",
        "g"
      ],
      [
        "Ġtr",
        "ong"
      ],
      [
        "Ġt",
        "Ã´i"
      ],
      [
        "áº",
        "¯"
      ],
      [
        "Æ°á»Ŀ",
        "i"
      ],
      [
        "Ġc",
        "Ã¡c"
      ],
      [
        "Ġ",
        "L"
      ],
      [
        "Ġth",
        "at"
      ],
      [
        "Ġf",
        "or"
      ],
      [
        "Ġt",
        "a"
      ],
      [
        "i",
        "r"
      ],
      [
        "Äĥ",
        "m"
      ],
      [
        "er",
        "e"
      ],
      [
        "Ġb",
        "e"
      ],
      [
        "á»",
        "±"
      ],
      [
        "Ġng",
        "Æ°á»Ŀi"
      ],
      [
        "Ġch",
        "o"
      ],
      [
        "t",
        "er"
      ],
      [
        "v",
        "er"
      ],
      [
        "Ġch",
        "á»"
      ],
      [
        "Ġ",
        "it"
      ],
      [
        "Ġw",
        "as"
      ],
      [
        "Ġ",
        "D"
      ],
      [
        "u",
        "n"
      ],
      [
        "a",
        "ng"
      ],
      [
        "Ġvá»",
        "Ľi"
      ],
      [
        "Ġc",
        "on"
      ],
      [
        "Ãº",
        "ng"
      ],
      [
        "iá»",
        "ģ"
      ],
      [
        "t",
        "h"
      ],
      [
        "i",
        "Ãªn"
      ],
      [
        "e",
        "m"
      ],
      [
        "ĠTh",
        "e"
      ],
      [
        "Ã¢",
        "n"
      ],
      [
        "c",
        "e"
      ],
      [
        "Ã¬",
        "nh"
      ],
      [
        "Ġ",
        "G"
      ],
      [
        "0",
        "0"
      ],
      [
        "Ġn",
        "Ã³"
      ],
      [
        "Ġn",
        "Äĥm"
      ],
      [
        "ĠÄĳ",
        "Ã³"
      ],
      [
        "Ġh",
        "a"
      ],
      [
        "it",
        "h"
      ],
      [
        "áº£",
        "i"
      ],
      [
        "r",
        "o"
      ],
      [
        "Ġ1",
        "9"
      ],
      [
        "Ġs",
        "t"
      ],
      [
        "áº§",
        "n"
      ],
      [
        "Ġng",
        "h"
      ],
      [
        "á»",
        "ĭ"
      ],
      [
        "Ãł",
        "nh"
      ],
      [
        "á»¯",
        "ng"
      ],
      [
        "Ġ",
        "á»Ł"
      ],
      [
        "at",
        "ion"
      ],
      [
        "Ġa",
        "l"
      ],
      [
        "Ġ",
        "R"
      ],
      [
        "áº¥",
        "y"
      ],
      [
        "á»",
        "ĩ"
      ],
      [
        "a",
        "o"
      ],
      [
        "Ġnh",
        "Æ°"
      ],
      [
        "Ã¢",
        "y"
      ],
      [
        "Ġn",
        "Ãły"
      ],
      [
        "áº",
        "·"
      ],
      [
        "c",
        "t"
      ],
      [
        "Ġ",
        "F"
      ],
      [
        "a",
        "u"
      ],
      [
        "Ġ",
        "\\\""
      ],
      [
        "Ġ",
        "K"
      ],
      [
        "Ã",
        "²"
      ],
      [
        "Ġw",
        "ith"
      ],
      [
        "áº",
        "½"
      ],
      [
        "Ã",
        "¹"
      ],
      [
        "Ġthá»",
        "ĥ"
      ],
      [
        "?\"",
        ",\""
      ],
      [
        "iá»ģ",
        "u"
      ],
      [
        "?\"",
        "}"
      ],
      [
        "s",
        "t"
      ],
      [
        "n",
        "d"
      ],
      [
        "Ġnh",
        "á»¯ng"
      ],
      [
        "i",
        "a"
      ],
      [
        "o",
        "p"
      ],
      [
        "u",
        "á»ĳ"
      ],
      [
        "an",
        "d"
      ],
      [
        "áº¿",
        "n"
      ],
      [
        "áº§",
        "u"
      ],
      [
        "Ġa",
        "s"
      ],
      [
        "\"",
        "}"
      ],
      [
        "á»",
        "¥"
      ],
      [
        "iáº¿",
        "t"
      ],
      [
        "l",
        "d"
      ],
      [
        "Ġh",
        "á»į"
      ],
      [
        "Ġr",
        "e"
      ],
      [
        "Ġ",
        "Y"
      ],
      [
        "Ġr",
        "a"
      ],
      [
        "u",
        "l"
      ],
      [
        "á»",
        "ĵ"
      ],
      [
        "Ġ",
        "E"
      ],
      [
        "Ġg",
        "iá»"
      ],
      [
        "i",
        "f"
      ],
      [
        "es",
        "t"
      ],
      [
        "ĠvÃł",
        "o"
      ],
      [
        "o",
        "d"
      ],
      [
        "Æ°á»",
        "Ľ"
      ],
      [
        "Ġd",
        "o"
      ],
      [
        "Ġc",
        "Ã¡"
      ],
      [
        "©",
        "ng"
      ],
      [
        "Ġ",
        "J"
      ],
      [
        "il",
        "l"
      ],
      [
        "Ã¡",
        "ng"
      ],
      [
        "Ġs",
        "áº½"
      ],
      [
        "iá»",
        "ĥ"
      ],
      [
        "Ġan",
        "h"
      ],
      [
        "Ġ",
        "O"
      ],
      [
        "a",
        "g"
      ],
      [
        "áº",
        "±"
      ],
      [
        "u",
        "m"
      ],
      [
        "ig",
        "h"
      ],
      [
        "Æ°",
        "Æ¡"
      ],
      [
        "k",
        "e"
      ],
      [
        "Ġs",
        "h"
      ],
      [
        "Ġ",
        "-"
      ],
      [
        "Ġtá»",
        "«"
      ],
      [
        "Ġch",
        "Ãºng"
      ],
      [
        "ĠÄĳ",
        "áº¿n"
      ],
      [
        "áºŃ",
        "t"
      ],
      [
        "iá»ĩ",
        "n"
      ],
      [
        "Ġw",
        "e"
      ],
      [
        "'",
        "t"
      ],
      [
        "in",
        "h"
      ],
      [
        "a",
        "in"
      ],
      [
        "ĠÄĳá»",
        "ĥ"
      ],
      [
        "Ġkh",
        "i"
      ],
      [
        "Ġf",
        "r"
      ],
      [
        "er",
        "s"
      ],
      [
        "ĠÄĳ",
        "á»Ļ"
      ],
      [
        "an",
        "t"
      ],
      [
        "ĠlÃł",
        "m"
      ],
      [
        "Ġh",
        "e"
      ],
      [
        "Ġa",
        "re"
      ],
      [
        "es",
        "s"
      ],
      [
        "Ãł",
        "i"
      ],
      [
        "Ġl",
        "o"
      ],
      [
        "áº¿",
        "t"
      ],
      [
        "áº£",
        "n"
      ],
      [
        "is",
        "t"
      ],
      [
        "ÃŃ",
        "nh"
      ],
      [
        "Ġm",
        "e"
      ],
      [
        "Ä",
        "©"
      ],
      [
        "Ġh",
        "o"
      ],
      [
        "ĠC",
        "h"
      ],
      [
        "áº¡",
        "n"
      ],
      [
        "Ġ",
        "at"
      ],
      [
        "Æ°á»Ľ",
        "c"
      ],
      [
        "Æ°á»Ŀ",
        "ng"
      ],
      [
        "Ġs",
        "á»ĳ"
      ],
      [
        "Ŀ",
        "i"
      ],
      [
        "Ġth",
        "is"
      ],
      [
        "áºŃ",
        "n"
      ],
      [
        "áº±",
        "ng"
      ],
      [
        "Æ°Æ¡",
        "ng"
      ],
      [
        "r",
        "i"
      ],
      [
        "©",
        "c"
      ],
      [
        "u",
        "ng"
      ],
      [
        "Ġc",
        "áº£"
      ],
      [
        "Ġs",
        "á»±"
      ],
      [
        "a",
        "p"
      ],
      [
        "Ġc",
        "om"
      ],
      [
        "iáº¿",
        "n"
      ],
      [
        "us",
        "t"
      ],
      [
        "el",
        "l"
      ],
      [
        "Ġha",
        "ve"
      ],
      [
        "\"",
        ",\""
      ],
      [
        "Ġb",
        "y"
      ],
      [
        "Æ¡",
        "n"
      ],
      [
        "a",
        "b"
      ],
      [
        "Ġph",
        "áº£i"
      ],
      [
        "Ġ2",
        "0"
      ],
      [
        "Ġvá»",
        "ģ"
      ],
      [
        "Ä",
        "Ĳ"
      ],
      [
        "igh",
        "t"
      ],
      [
        "Ġth",
        "Ãłnh"
      ],
      [
        "u",
        "p"
      ],
      [
        "Ã¡",
        "t"
      ],
      [
        "Ġl",
        "á»"
      ],
      [
        "g",
        "h"
      ],
      [
        "Ã¹",
        "ng"
      ],
      [
        "a",
        "i"
      ],
      [
        "Ġn",
        "ot"
      ],
      [
        "ĠÄĳ",
        "áº§u"
      ],
      [
        "ar",
        "t"
      ],
      [
        "Ãł",
        "n"
      ],
      [
        "..",
        "."
      ],
      [
        "ou",
        "r"
      ],
      [
        "Ġn",
        "e"
      ],
      [
        "Ġfr",
        "om"
      ],
      [
        "Ã",
        "©"
      ],
      [
        "áºŃ",
        "p"
      ],
      [
        "C",
        "h"
      ],
      [
        "á»",
        "ķ"
      ],
      [
        "Ãł",
        "o"
      ],
      [
        "Ġ",
        "or"
      ],
      [
        "á»",
        "ı"
      ],
      [
        "Ġd",
        "e"
      ],
      [
        "ou",
        "ld"
      ],
      [
        "Ã¢",
        "u"
      ],
      [
        "Ġ",
        "Ã´ng"
      ],
      [
        "ec",
        "t"
      ],
      [
        "Ġ",
        "U"
      ],
      [
        "T",
        "Ã´i"
      ],
      [
        "or",
        "e"
      ],
      [
        "Ġs",
        "e"
      ],
      [
        "Ġm",
        "Ãł"
      ],
      [
        "Ġc",
        "an"
      ],
      [
        "ĠÄ",
        "Ĳ"
      ],
      [
        "Ġg",
        "o"
      ],
      [
        "Ġp",
        "ro"
      ],
      [
        "al",
        "l"
      ],
      [
        "i",
        "es"
      ],
      [
        "Å",
        "©ng"
      ],
      [
        "Ġth",
        "Ã¡ng"
      ],
      [
        "á»Ļ",
        "c"
      ],
      [
        "an",
        "h"
      ],
      [
        "it",
        "y"
      ],
      [
        "á»ĳ",
        "i"
      ],
      [
        "iá»ĩ",
        "c"
      ],
      [
        "Ġt",
        "áº¡i"
      ],
      [
        "Ġth",
        "áº¿"
      ],
      [
        "Ġg",
        "Ã¬"
      ],
      [
        "r",
        "a"
      ],
      [
        "al",
        "ly"
      ],
      [
        "Ãł",
        "ng"
      ],
      [
        "ĠI",
        "n"
      ],
      [
        "Ġl",
        "áº¡i"
      ],
      [
        "Ġc",
        "Ã´"
      ],
      [
        "Ã",
        "½"
      ],
      [
        "ĠnÃ³",
        "i"
      ],
      [
        "ĠY",
        "ou"
      ],
      [
        "ĠÄĳ",
        "i"
      ],
      [
        "Ġe",
        "x"
      ],
      [
        "Ġb",
        "á»ĭ"
      ],
      [
        "ĠI",
        "t"
      ],
      [
        "Ġk",
        "n"
      ],
      [
        "om",
        "e"
      ],
      [
        "i",
        "v"
      ],
      [
        "Ġ20",
        "1"
      ],
      [
        "en",
        "d"
      ],
      [
        "Ġb",
        "iáº¿t"
      ],
      [
        "b",
        "er"
      ],
      [
        "Ġch",
        "uy"
      ],
      [
        "ar",
        "d"
      ],
      [
        "o",
        "k"
      ],
      [
        "Ġa",
        "b"
      ],
      [
        "or",
        "t"
      ],
      [
        "á»",
        "ģ"
      ],
      [
        "Ġc",
        "Å©ng"
      ],
      [
        "Ġ",
        "j"
      ],
      [
        "h",
        "er"
      ],
      [
        "Ġ",
        "us"
      ],
      [
        "Ġv",
        "iá»ĩc"
      ],
      [
        "â",
        "Ģ"
      ],
      [
        "Ġs",
        "á»"
      ],
      [
        "p",
        "p"
      ],
      [
        "u",
        "á»Ļc"
      ],
      [
        "±",
        "c"
      ],
      [
        "Ġng",
        "Ãły"
      ],
      [
        "Ġs",
        "o"
      ],
      [
        "Ġkn",
        "ow"
      ],
      [
        "h",
        "i"
      ],
      [
        "e",
        "ar"
      ],
      [
        "Ġtr",
        "Ãªn"
      ],
      [
        "Ġp",
        "r"
      ],
      [
        "a",
        "k"
      ],
      [
        "Ġ",
        "un"
      ],
      [
        "Ġ",
        "3"
      ],
      [
        "Ġc",
        "Ã´ng"
      ],
      [
        "Ġ2",
        "00"
      ],
      [
        "as",
        "t"
      ],
      [
        "Ã¡",
        "i"
      ],
      [
        "áº·",
        "c"
      ],
      [
        "Ġw",
        "or"
      ],
      [
        "á»ĵ",
        "i"
      ],
      [
        "u",
        "d"
      ],
      [
        "Ġnh",
        "Ãł"
      ],
      [
        "in",
        "e"
      ],
      [
        "Ġchá»",
        "ī"
      ],
      [
        "ĠA",
        "nd"
      ],
      [
        "am",
        "e"
      ],
      [
        "Æ¡",
        "i"
      ],
      [
        "i",
        "e"
      ],
      [
        "Ġal",
        "l"
      ],
      [
        "ĠÄĳá»",
        "ĭ"
      ],
      [
        "i",
        "ch"
      ],
      [
        "i",
        "ve"
      ],
      [
        "Ġh",
        "Æ¡n"
      ],
      [
        "Äĥ",
        "ng"
      ],
      [
        "a",
        "c"
      ],
      [
        "Ġm",
        "y"
      ],
      [
        "Ġyou",
        "r"
      ],
      [
        "ĠÄĳ",
        "Ã¢y"
      ],
      [
        "Ġs",
        "u"
      ],
      [
        "Ġnh",
        "áº¥t"
      ],
      [
        "Ġp",
        "l"
      ],
      [
        "Ġhá»į",
        "c"
      ],
      [
        "Ġm",
        "á»"
      ],
      [
        "á»į",
        "i"
      ],
      [
        "Ġkh",
        "Ã¡c"
      ],
      [
        "Ġe",
        "m"
      ],
      [
        "N",
        "h"
      ],
      [
        "ĠÄĳ",
        "ang"
      ],
      [
        "Ġt",
        "iáº¿"
      ],
      [
        "ou",
        "gh"
      ],
      [
        "ou",
        "s"
      ],
      [
        "e",
        "p"
      ],
      [
        "áº¯",
        "t"
      ],
      [
        "Ġch",
        "ÃŃnh"
      ],
      [
        "Ġngh",
        "Ä©"
      ],
      [
        "ĠÄĳ",
        "iá»ģu"
      ],
      [
        "Ġs",
        "p"
      ],
      [
        "Ġd",
        "á»¥"
      ],
      [
        "áºŃ",
        "u"
      ],
      [
        "\":\"",
        "-"
      ],
      [
        "áº",
        "«"
      ],
      [
        "uá»ĳ",
        "n"
      ],
      [
        "Ã²",
        "n"
      ],
      [
        "Ġh",
        "is"
      ],
      [
        "on",
        "e"
      ],
      [
        "T",
        "h"
      ],
      [
        "ÃŃ",
        "ch"
      ],
      [
        "os",
        "t"
      ],
      [
        "á»ĳ",
        "c"
      ],
      [
        "Ġnh",
        "iá»ģu"
      ],
      [
        "ou",
        "nd"
      ],
      [
        "áº¿",
        "u"
      ],
      [
        "is",
        "h"
      ],
      [
        "Ã¡",
        "n"
      ],
      [
        "m",
        "ent"
      ],
      [
        "ĠW",
        "h"
      ],
      [
        "'",
        "re"
      ],
      [
        "á»ĩ",
        "n"
      ],
      [
        "Ġgi",
        "a"
      ],
      [
        "Æ°",
        "a"
      ],
      [
        "id",
        "e"
      ],
      [
        "i",
        "an"
      ],
      [
        "áº¯",
        "c"
      ],
      [
        "Ġw",
        "ere"
      ],
      [
        "á»Ļ",
        "i"
      ],
      [
        "áºŃ",
        "y"
      ],
      [
        "á»ģ",
        "n"
      ],
      [
        "Ġs",
        "au"
      ],
      [
        "Ġb",
        "áº¡n"
      ],
      [
        "Ġth",
        "áº¥y"
      ],
      [
        "ĠH",
        "e"
      ],
      [
        "n",
        "t"
      ],
      [
        "Ã¡",
        "o"
      ],
      [
        "Ġthe",
        "y"
      ],
      [
        "Ġon",
        "e"
      ],
      [
        "á»",
        "£"
      ],
      [
        "á»",
        "ĥ"
      ],
      [
        "Ì",
        "ģ"
      ],
      [
        "Ġ",
        "Tr"
      ],
      [
        "a",
        "v"
      ],
      [
        "i",
        "Ãª"
      ],
      [
        "Ġl",
        "e"
      ],
      [
        "iá»ĩ",
        "u"
      ],
      [
        "Ġb",
        "ut"
      ],
      [
        "Ġthá»",
        "©"
      ],
      [
        "ĠS",
        "t"
      ],
      [
        "Ġh",
        "er"
      ],
      [
        "Ãº",
        "c"
      ],
      [
        "r",
        "y"
      ],
      [
        "Ġa",
        "r"
      ],
      [
        "áº¡",
        "o"
      ],
      [
        "ĠÄĳá»Ļ",
        "ng"
      ],
      [
        "in",
        "d"
      ],
      [
        "Ġr",
        "áº±ng"
      ],
      [
        "Ġwh",
        "at"
      ],
      [
        "l",
        "l"
      ],
      [
        "áº£",
        "o"
      ],
      [
        "o",
        "g"
      ],
      [
        "Ġl",
        "i"
      ],
      [
        "Ġab",
        "out"
      ],
      [
        "Ġm",
        "Ã¬nh"
      ],
      [
        "Ġm",
        "uá»ĳn"
      ],
      [
        "ĠcÃ¡",
        "ch"
      ],
      [
        "Ġ",
        "out"
      ],
      [
        "p",
        "l"
      ],
      [
        "Ġ",
        "áº¥y"
      ],
      [
        "áº",
        "©"
      ],
      [
        "ar",
        "y"
      ],
      [
        "Ġqu",
        "an"
      ],
      [
        "im",
        "e"
      ],
      [
        "áº¯",
        "n"
      ],
      [
        "á»Ł",
        "i"
      ],
      [
        "Ġh",
        "iá»ĩn"
      ],
      [
        "ĠS",
        "h"
      ],
      [
        "ĠÄĳá»",
        "ģ"
      ],
      [
        "á»ĳ",
        "ng"
      ],
      [
        "Ġn",
        "Ãło"
      ],
      [
        "áº·",
        "t"
      ],
      [
        "Ã´",
        "n"
      ],
      [
        "Ġqu",
        "y"
      ],
      [
        "u",
        "re"
      ],
      [
        "Ã¢",
        "m"
      ],
      [
        "ĠnhÆ°",
        "ng"
      ],
      [
        "Ġth",
        "u"
      ],
      [
        "d",
        "er"
      ],
      [
        "Ġc",
        "Ã²n"
      ],
      [
        "Ġn",
        "á»¯"
      ],
      [
        "ĠÄĳá»",
        "ĵ"
      ],
      [
        "Æ°á»£",
        "ng"
      ],
      [
        "u",
        "b"
      ],
      [
        "ate",
        "d"
      ],
      [
        "Ġh",
        "as"
      ],
      [
        "Æ°á»",
        "Ł"
      ],
      [
        "áº«",
        "n"
      ],
      [
        "Ġv",
        "Ã¬"
      ],
      [
        "in",
        "k"
      ],
      [
        "s",
        "e"
      ],
      [
        "a",
        "ch"
      ],
      [
        "Ġth",
        "ere"
      ],
      [
        "Æ°á»Ł",
        "ng"
      ],
      [
        "Ã¡",
        "p"
      ],
      [
        "áº£",
        "ng"
      ],
      [
        "Ġh",
        "ad"
      ],
      [
        "e",
        "w"
      ],
      [
        "Ġr",
        "á»ĵi"
      ],
      [
        "Ġ",
        "up"
      ],
      [
        "Ġs",
        "ao"
      ],
      [
        "Ġsá»",
        "Ń"
      ],
      [
        "Ġph",
        "Ã¡t"
      ],
      [
        "áº",
        "»"
      ],
      [
        "'",
        "m"
      ],
      [
        "u",
        "e"
      ],
      [
        "á»",
        "§"
      ],
      [
        "ĠW",
        "e"
      ],
      [
        "i",
        "z"
      ],
      [
        "i",
        "al"
      ],
      [
        "Ġ",
        "4"
      ],
      [
        "Ã²",
        "ng"
      ],
      [
        ")",
        ","
      ],
      [
        "ĠcÃ¡",
        "i"
      ],
      [
        "Ġc",
        "Ã¹ng"
      ],
      [
        "g",
        "e"
      ],
      [
        "iá»ĥ",
        "u"
      ],
      [
        "Ì",
        "Ģ"
      ],
      [
        "f",
        "f"
      ],
      [
        "Ġthá»",
        "Ŀi"
      ],
      [
        "Ġwh",
        "o"
      ],
      [
        "Ġdá»¥",
        "ng"
      ],
      [
        "áº¡",
        "t"
      ],
      [
        "Ġwh",
        "ich"
      ],
      [
        "Ġthe",
        "o"
      ],
      [
        "Ġ",
        "5"
      ],
      [
        "Ġha",
        "i"
      ],
      [
        "th",
        "er"
      ],
      [
        "Ġr",
        "áº¥t"
      ],
      [
        "Ġm",
        "an"
      ],
      [
        "Ġ",
        "Q"
      ],
      [
        "Ġc",
        "uá»Ļc"
      ],
      [
        "Ġj",
        "ust"
      ],
      [
        "Ġnh",
        "Ã¢n"
      ],
      [
        "ic",
        "e"
      ],
      [
        "Ã¡",
        "nh"
      ],
      [
        "o",
        "v"
      ],
      [
        "Ġthá»",
        "±c"
      ],
      [
        "ion",
        "s"
      ],
      [
        "Ġin",
        "t"
      ],
      [
        "Ġsh",
        "e"
      ],
      [
        "Ã¡",
        "ch"
      ],
      [
        "áº¥",
        "p"
      ],
      [
        "Ġli",
        "ke"
      ],
      [
        "Ġth",
        "Ã¬"
      ],
      [
        "iá»ĥ",
        "n"
      ],
      [
        "áº¥",
        "n"
      ],
      [
        "s",
        "o"
      ],
      [
        "Ġkh",
        "o"
      ],
      [
        "ir",
        "st"
      ],
      [
        "c",
        "c"
      ],
      [
        "Ġh",
        "Ãłnh"
      ],
      [
        "áº¥",
        "u"
      ],
      [
        "A",
        "nh"
      ],
      [
        "Æ°",
        "ng"
      ],
      [
        "á»ķ",
        "i"
      ],
      [
        "Ġtr",
        "Æ°á»Ľc"
      ],
      [
        "ĠÄĳá»ĭ",
        "nh"
      ],
      [
        "Ġb",
        "á»Łi"
      ],
      [
        "Ġk",
        "á»"
      ],
      [
        "á»±",
        "c"
      ],
      [
        "p",
        "er"
      ],
      [
        "i",
        "b"
      ],
      [
        "a",
        "us"
      ],
      [
        "Ġx",
        "u"
      ],
      [
        "ĠP",
        "h"
      ],
      [
        "Äĥ",
        "n"
      ],
      [
        "áº",
        "¹"
      ],
      [
        "Ġtá»",
        "Ľi"
      ],
      [
        "o",
        "b"
      ],
      [
        "Ġb",
        "ec"
      ],
      [
        "iá»ĥ",
        "m"
      ],
      [
        "Ġb",
        "á»Ļ"
      ],
      [
        "os",
        "e"
      ],
      [
        "Ġlá»",
        "Ľ"
      ],
      [
        "Ġd",
        "on"
      ],
      [
        "iá»ĩ",
        "t"
      ],
      [
        "á»¥",
        "c"
      ],
      [
        "i",
        "p"
      ],
      [
        "Ġg",
        "et"
      ],
      [
        "Ġbe",
        "en"
      ],
      [
        "Ġnh",
        "áºŃn"
      ],
      [
        "Ġh",
        "Ã¬nh"
      ],
      [
        "Ġh",
        "im"
      ],
      [
        "a",
        "ce"
      ],
      [
        "Ġb",
        "áº£n"
      ],
      [
        "Ġgiá»",
        "Ŀ"
      ],
      [
        "Ġtá»",
        "±"
      ],
      [
        "a",
        "w"
      ],
      [
        "Ġgiá»",
        "Ľi"
      ],
      [
        "V",
        "Ãł"
      ],
      [
        "Ġb",
        "ao"
      ],
      [
        "iá»",
        "ħ"
      ],
      [
        "Ġchuy",
        "á»ĩn"
      ],
      [
        "Ġw",
        "ant"
      ],
      [
        "Ġw",
        "ould"
      ],
      [
        "Ġa",
        "g"
      ],
      [
        "ĠS",
        "o"
      ],
      [
        "á»£",
        "p"
      ],
      [
        "Ġs",
        "ome"
      ],
      [
        "Ġb",
        "áº±ng"
      ],
      [
        "w",
        "o"
      ],
      [
        "Ġp",
        "e"
      ],
      [
        "Ġw",
        "ill"
      ],
      [
        "âĢ",
        "ĵ"
      ],
      [
        "ic",
        "al"
      ],
      [
        "Ġ1",
        "8"
      ],
      [
        "Ġc",
        "o"
      ],
      [
        "ag",
        "e"
      ],
      [
        "Ġc",
        "áºŃu"
      ],
      [
        "Ġg",
        "r"
      ],
      [
        "Ġcon",
        "t"
      ],
      [
        "áº¡",
        "c"
      ],
      [
        "Ġthe",
        "ir"
      ],
      [
        "Ġf",
        "irst"
      ],
      [
        "Ġn",
        "Æ°á»Ľc"
      ],
      [
        "Ġv",
        "áºŃy"
      ],
      [
        "or",
        "d"
      ],
      [
        "a",
        "h"
      ],
      [
        "v",
        "en"
      ],
      [
        "Ġthe",
        "m"
      ],
      [
        "Ġh",
        "á»£p"
      ],
      [
        "Ġb",
        "áº¯t"
      ],
      [
        "Ġt",
        "ime"
      ],
      [
        "Ġlá»Ľ",
        "n"
      ],
      [
        "Ġqu",
        "a"
      ],
      [
        "Ġc",
        "áº§n"
      ],
      [
        "Ġ",
        "im"
      ],
      [
        "Ġcá»",
        "©"
      ],
      [
        "Ġv",
        "iÃªn"
      ],
      [
        "á»",
        "«"
      ],
      [
        "Ch",
        "Ãºng"
      ],
      [
        "Ġy",
        "ear"
      ],
      [
        "Ġxu",
        "áº¥t"
      ],
      [
        "Ġtr",
        "á»Ł"
      ],
      [
        "f",
        "ter"
      ],
      [
        "Ġm",
        "a"
      ],
      [
        "áº¡",
        "ng"
      ],
      [
        "Ã¬",
        "m"
      ],
      [
        "ig",
        "n"
      ],
      [
        "en",
        "ce"
      ],
      [
        "ĠN",
        "h"
      ],
      [
        "Ġs",
        "inh"
      ],
      [
        "Ġl",
        "u"
      ],
      [
        "ow",
        "n"
      ],
      [
        "á»ĭ",
        "ch"
      ],
      [
        "Ġp",
        "art"
      ],
      [
        "Ġh",
        "ere"
      ],
      [
        "Ġal",
        "so"
      ],
      [
        "Ġch",
        "iáº¿n"
      ],
      [
        "Ġan",
        "y"
      ],
      [
        "Ġl",
        "Ãªn"
      ],
      [
        "Ġth",
        "ink"
      ],
      [
        "Ġm",
        "ore"
      ],
      [
        "op",
        "le"
      ],
      [
        "Ġn",
        "Ãªn"
      ],
      [
        "Ġk",
        "áº¿t"
      ],
      [
        "Ġt",
        "iÃªn"
      ],
      [
        "ou",
        "nt"
      ],
      [
        "p",
        "ort"
      ],
      [
        "on",
        "d"
      ],
      [
        "Ġ",
        "if"
      ],
      [
        "et",
        "h"
      ],
      [
        "Ġc",
        "l"
      ],
      [
        "Ġ",
        "6"
      ],
      [
        "Ġd",
        "á»±"
      ],
      [
        "Ġqu",
        "á»ĳc"
      ],
      [
        "Ġph",
        "áº§n"
      ],
      [
        "as",
        "e"
      ],
      [
        "en",
        "s"
      ],
      [
        "Ġt",
        "Ãªn"
      ],
      [
        "Ġgiá»",
        "¯"
      ],
      [
        "p",
        "t"
      ],
      [
        "Ġa",
        "d"
      ],
      [
        "iá»ĩ",
        "m"
      ],
      [
        "Ġwh",
        "en"
      ],
      [
        "a",
        "ct"
      ],
      [
        "Ġin",
        "c"
      ],
      [
        "ĠÄĳá»ĵ",
        "ng"
      ],
      [
        "ĠA",
        "r"
      ],
      [
        "ĠÄĳ",
        "o"
      ],
      [
        "ay",
        "s"
      ],
      [
        "i",
        "re"
      ],
      [
        "á»ı",
        "i"
      ],
      [
        "aus",
        "e"
      ],
      [
        "!",
        "\",\""
      ],
      [
        "N",
        "g"
      ],
      [
        "an",
        "ce"
      ],
      [
        "m",
        "er"
      ],
      [
        "Ġt",
        "Ã¬m"
      ],
      [
        "Ġtiáº¿",
        "p"
      ],
      [
        "Ġn",
        "o"
      ],
      [
        "h",
        "Ã´ng"
      ],
      [
        "p",
        "r"
      ],
      [
        "f",
        "er"
      ],
      [
        "r",
        "u"
      ],
      [
        "Ġsá»ĳ",
        "ng"
      ],
      [
        "Ã¡",
        "y"
      ],
      [
        "Ġh",
        "Ãłng"
      ],
      [
        "ĠTh",
        "is"
      ],
      [
        "iá»ģ",
        "n"
      ],
      [
        "it",
        "t"
      ],
      [
        "Ġvá»",
        "ĭ"
      ],
      [
        "Ì",
        "£"
      ],
      [
        "Ġph",
        "ÃŃ"
      ],
      [
        "ol",
        "l"
      ],
      [
        "uá»ĳ",
        "c"
      ],
      [
        "Ġ19",
        "9"
      ],
      [
        "Ġmá»",
        "Ľi"
      ],
      [
        "Ġl",
        "Ã½"
      ],
      [
        "ul",
        "t"
      ],
      [
        "or",
        "m"
      ],
      [
        "il",
        "e"
      ],
      [
        "Ġt",
        "á»ĳ"
      ],
      [
        "Ġc",
        "Æ¡"
      ],
      [
        "ar",
        "e"
      ],
      [
        "Ġr",
        "ec"
      ],
      [
        "Ġwor",
        "k"
      ],
      [
        "ate",
        "r"
      ],
      [
        "Ġr",
        "es"
      ],
      [
        "Ġt",
        "in"
      ],
      [
        "á»Ļ",
        "ng"
      ],
      [
        "n",
        "e"
      ],
      [
        "iá»ħ",
        "n"
      ],
      [
        "Ĺ",
        "i"
      ],
      [
        "re",
        "e"
      ],
      [
        "ation",
        "s"
      ],
      [
        "Ġd",
        "id"
      ],
      [
        "ĠB",
        "ut"
      ],
      [
        "Ġho",
        "áº·c"
      ],
      [
        "Ġo",
        "ther"
      ],
      [
        "N",
        "Ã³"
      ],
      [
        "Ġtr",
        "Æ°á»Ŀng"
      ],
      [
        "Ġtr",
        "Ã¬nh"
      ],
      [
        "ar",
        "k"
      ],
      [
        "Ġe",
        "ver"
      ],
      [
        "Ġg",
        "á»įi"
      ],
      [
        "n",
        "a"
      ],
      [
        "Ġ",
        "Ã"
      ],
      [
        "Ġ1",
        "0"
      ],
      [
        "Ġp",
        "er"
      ],
      [
        "or",
        "y"
      ],
      [
        "Ġgi",
        "áº£i"
      ],
      [
        "ĠA",
        "l"
      ],
      [
        "at",
        "h"
      ],
      [
        "ĠÄĳá»",
        "ķ"
      ],
      [
        "Ġth",
        "Æ°á»Ŀng"
      ],
      [
        "Ġo",
        "ver"
      ],
      [
        "it",
        "e"
      ],
      [
        ".",
        "\\\""
      ],
      [
        "Ġs",
        "a"
      ],
      [
        "Ġr",
        "ight"
      ],
      [
        "Ġná»¯",
        "a"
      ],
      [
        "Ġpe",
        "ople"
      ],
      [
        "Ġt",
        "u"
      ],
      [
        "ĠU",
        "n"
      ],
      [
        "o",
        "y"
      ],
      [
        "l",
        "and"
      ],
      [
        "!",
        "\"}"
      ],
      [
        "Ġ",
        "7"
      ],
      [
        "ĠF",
        "r"
      ],
      [
        "'",
        "ll"
      ],
      [
        "Ġit",
        "s"
      ],
      [
        "á»ĥ",
        "n"
      ],
      [
        "Ġt",
        "wo"
      ],
      [
        "Ġth",
        "an"
      ],
      [
        "Ġb",
        "r"
      ],
      [
        "Ġt",
        "áº¡o"
      ],
      [
        "uy",
        "Ãªn"
      ],
      [
        "Ġh",
        "ay"
      ],
      [
        "C",
        "Ã¡c"
      ],
      [
        "ing",
        "s"
      ],
      [
        "00",
        "0"
      ],
      [
        "Ġt",
        "áº¿"
      ],
      [
        "Ġng",
        "o"
      ],
      [
        "Ġ",
        "en"
      ],
      [
        "Ġd",
        "is"
      ],
      [
        "Ġl",
        "áº§n"
      ],
      [
        "ter",
        "n"
      ],
      [
        "Ġkh",
        "u"
      ],
      [
        "iá»ĩ",
        "p"
      ],
      [
        "á»į",
        "n"
      ],
      [
        "Ġth",
        "á»ĳng"
      ],
      [
        "d",
        "u"
      ],
      [
        "Ġqu",
        "Ã¢n"
      ],
      [
        "Ġtá»",
        "ķ"
      ],
      [
        "Ġl",
        "áºŃp"
      ],
      [
        "Ġt",
        "ÃŃnh"
      ],
      [
        "Ġvá»",
        "¥"
      ],
      [
        "Ġm",
        "u"
      ],
      [
        "Ġth",
        "Ã´ng"
      ],
      [
        "ol",
        "d"
      ],
      [
        "Ġv",
        "áºŃt"
      ],
      [
        "Ġof",
        "f"
      ],
      [
        "á»",
        "©c"
      ],
      [
        "'",
        "ve"
      ],
      [
        "ĠÄĳ",
        "á»ĳi"
      ],
      [
        "Ġb",
        "u"
      ],
      [
        "Ġa",
        "ct"
      ],
      [
        "Ġl",
        "Æ°á»£ng"
      ],
      [
        "ad",
        "e"
      ],
      [
        "Ġcom",
        "p"
      ],
      [
        "i",
        "ver"
      ],
      [
        "ĠÄĳ",
        "áº¡i"
      ],
      [
        "os",
        "s"
      ],
      [
        "Ġnh",
        "au"
      ],
      [
        "iÃª",
        "u"
      ],
      [
        "Ġchá»",
        "§"
      ],
      [
        "Ġn",
        "ow"
      ],
      [
        "Ġint",
        "o"
      ],
      [
        "Ġa",
        "pp"
      ],
      [
        "ĠSh",
        "e"
      ],
      [
        "Tr",
        "ong"
      ],
      [
        "Ġ",
        "8"
      ],
      [
        "it",
        "ion"
      ],
      [
        "Ġgi",
        "an"
      ],
      [
        "Ġd",
        "Ã¢n"
      ],
      [
        "M",
        "á»Ļt"
      ],
      [
        "Ġr",
        "el"
      ],
      [
        "f",
        "t"
      ],
      [
        "m",
        "an"
      ],
      [
        "Nh",
        "Æ°ng"
      ],
      [
        "Ġh",
        "á»ĩ"
      ],
      [
        "Ã³",
        "a"
      ],
      [
        "Ķ",
        "ng"
      ],
      [
        "Ġh",
        "á»Ļi"
      ],
      [
        "Ġc",
        "ould"
      ],
      [
        "ot",
        "her"
      ],
      [
        "Ġse",
        "e"
      ],
      [
        "is",
        "s"
      ],
      [
        "Ġtiáº¿",
        "ng"
      ],
      [
        "Ġ",
        "Ã½"
      ],
      [
        "ĠM",
        "ar"
      ],
      [
        "Ġ",
        "our"
      ],
      [
        "Ġb",
        "et"
      ],
      [
        "Ġnh",
        "iÃªn"
      ],
      [
        "il",
        "d"
      ],
      [
        "r",
        "ic"
      ],
      [
        "Ġon",
        "ly"
      ],
      [
        "Ã³",
        "ng"
      ],
      [
        "or",
        "n"
      ],
      [
        "Ġch",
        "iáº¿"
      ],
      [
        "ĠÄĳ",
        "Ã¢u"
      ],
      [
        ")",
        ".\"}"
      ],
      [
        "Ġt",
        "e"
      ],
      [
        "áº¡",
        "nh"
      ],
      [
        "Å",
        "©"
      ],
      [
        "Ġn",
        "Æ¡i"
      ],
      [
        "uá»ĳ",
        "i"
      ],
      [
        "Ãº",
        "t"
      ],
      [
        "Ġs",
        "c"
      ],
      [
        "er",
        "y"
      ],
      [
        "áº£",
        "nh"
      ],
      [
        "Ġg",
        "ot"
      ],
      [
        "w",
        "e"
      ],
      [
        "Ġm",
        "á»įi"
      ],
      [
        "Ġto",
        "Ãłn"
      ],
      [
        "am",
        "p"
      ],
      [
        "Ġ",
        "9"
      ],
      [
        "el",
        "y"
      ],
      [
        "Ãª",
        "u"
      ],
      [
        "ot",
        "h"
      ],
      [
        "Ġm",
        "Ã¡y"
      ],
      [
        "at",
        "es"
      ],
      [
        "ĠA",
        "nh"
      ],
      [
        "Ġn",
        "Äĥng"
      ],
      [
        "C",
        "Ã³"
      ],
      [
        "á»ĩ",
        "nh"
      ],
      [
        "Ġm",
        "áº·t"
      ],
      [
        "Ġb",
        "á»ĳ"
      ],
      [
        "Ġs",
        "er"
      ],
      [
        "Ġb",
        "Ãł"
      ],
      [
        "Ġh",
        "ow"
      ],
      [
        "ĠH",
        "o"
      ],
      [
        "Ġne",
        "ed"
      ],
      [
        "áº¯",
        "ng"
      ],
      [
        "Ġ",
        "el"
      ],
      [
        "Ġn",
        "áº¿u"
      ],
      [
        "in",
        "t"
      ],
      [
        "áº£",
        "y"
      ],
      [
        "Ġc",
        "ao"
      ],
      [
        "Ġs",
        "áº£n"
      ],
      [
        "..",
        ".\"}"
      ],
      [
        "o",
        "c"
      ],
      [
        "Ã¡",
        "m"
      ],
      [
        "ĠThe",
        "y"
      ],
      [
        "Ġa",
        "fter"
      ],
      [
        "ĠÄĳá»ķ",
        "i"
      ],
      [
        "ĠphÃŃ",
        "a"
      ],
      [
        "Ġv",
        "áº«n"
      ],
      [
        "ĠÄĳ",
        "Æ°á»Ŀng"
      ],
      [
        "uy",
        "á»ģn"
      ],
      [
        "ent",
        "s"
      ],
      [
        "e",
        "v"
      ],
      [
        "Ġd",
        "iá»ħn"
      ],
      [
        "if",
        "e"
      ],
      [
        "i",
        "ed"
      ],
      [
        "Ġwh",
        "ere"
      ],
      [
        "Ġa",
        "i"
      ],
      [
        "Ġb",
        "áº£o"
      ],
      [
        "on",
        "s"
      ],
      [
        "or",
        "s"
      ],
      [
        "Ġt",
        "áº¥t"
      ],
      [
        "o",
        "od"
      ],
      [
        "Ã¡",
        "u"
      ],
      [
        "Ġtr",
        "á»ĭ"
      ],
      [
        "Ġlo",
        "áº¡i"
      ],
      [
        "Ġth",
        "ay"
      ],
      [
        "Ġtá»ĳ",
        "t"
      ],
      [
        "ur",
        "n"
      ],
      [
        "Ġc",
        "all"
      ],
      [
        "Ġthe",
        "n"
      ],
      [
        "Ġl",
        "iÃªn"
      ],
      [
        "an",
        "k"
      ],
      [
        "Ġqu",
        "Ã¡"
      ],
      [
        "Ã",
        "Ķng"
      ],
      [
        "á»",
        "Ń"
      ],
      [
        "ab",
        "le"
      ],
      [
        "Ġl",
        "á»±c"
      ],
      [
        "Ġne",
        "w"
      ],
      [
        "ĠÄĳá»Ļ",
        "i"
      ],
      [
        "K",
        "hÃ´ng"
      ],
      [
        "Ġun",
        "der"
      ],
      [
        "p",
        "h"
      ],
      [
        "ation",
        "al"
      ],
      [
        "Ġ",
        "am"
      ],
      [
        "ĠB",
        "r"
      ],
      [
        "áº",
        "³"
      ],
      [
        "á»",
        "ī"
      ],
      [
        "Æ°á»",
        "Ľi"
      ],
      [
        "it",
        "ed"
      ],
      [
        "em",
        "ber"
      ],
      [
        "Ġt",
        "Ã¢m"
      ],
      [
        "Ġd",
        "es"
      ],
      [
        "Ġyear",
        "s"
      ],
      [
        "Ġthá»",
        "©c"
      ],
      [
        "Ġchá»",
        "©c"
      ],
      [
        "Ġth",
        "ese"
      ],
      [
        "ĠL",
        "e"
      ],
      [
        "ĠN",
        "o"
      ],
      [
        "Ġgo",
        "ing"
      ],
      [
        "Ġth",
        "áºŃt"
      ],
      [
        "Ġc",
        "áº§u"
      ],
      [
        "ĠTh",
        "at"
      ],
      [
        "Ġt",
        "uy"
      ],
      [
        "Ġcom",
        "m"
      ],
      [
        "á»ĵ",
        "m"
      ],
      [
        "al",
        "k"
      ],
      [
        "á»",
        "©ng"
      ],
      [
        "..",
        ".\",\""
      ],
      [
        "ĠÄĳ",
        "iá»ĥm"
      ],
      [
        "Ġchuy",
        "á»ĥn"
      ],
      [
        "1",
        "9"
      ],
      [
        "Ġtr",
        "ung"
      ],
      [
        "Ãª",
        "m"
      ],
      [
        "an",
        "c"
      ],
      [
        "Ġquy",
        "á»ģn"
      ],
      [
        "Ġt",
        "Ã¡c"
      ],
      [
        "Ġever",
        "y"
      ],
      [
        "Ġth",
        "ÃŃch"
      ],
      [
        "C",
        "Ã´"
      ],
      [
        ")",
        ".\",\""
      ],
      [
        "Ġ1",
        "2"
      ],
      [
        "Ġh",
        "Ã³a"
      ],
      [
        "Ġm",
        "ost"
      ],
      [
        "á»į",
        "ng"
      ],
      [
        "Ġch",
        "Æ°a"
      ],
      [
        "Ġf",
        "e"
      ],
      [
        "i",
        "o"
      ],
      [
        "Ġ",
        "X"
      ],
      [
        "ĠWh",
        "at"
      ],
      [
        "ĠP",
        "r"
      ],
      [
        "Ġg",
        "á»ĵm"
      ],
      [
        "áº·",
        "p"
      ],
      [
        "Ã¬",
        "n"
      ],
      [
        "l",
        "es"
      ],
      [
        "Ġth",
        "r"
      ],
      [
        "Ġb",
        "áº¥t"
      ],
      [
        "á»",
        "¹"
      ],
      [
        "Ì",
        "ī"
      ],
      [
        "Ġlo",
        "ok"
      ],
      [
        "Ġcáº£",
        "m"
      ],
      [
        "ur",
        "ing"
      ],
      [
        "Ġthá»",
        "ĭ"
      ],
      [
        "Ãł",
        "u"
      ],
      [
        "Ġtr",
        "á»įng"
      ],
      [
        "Ã£",
        "y"
      ],
      [
        "Ġ19",
        "8"
      ],
      [
        "Ġchá»",
        "©"
      ],
      [
        "Ġs",
        "om"
      ],
      [
        "ĠQ",
        "uá»ĳc"
      ],
      [
        "ĠN",
        "ew"
      ],
      [
        "v",
        "el"
      ],
      [
        "Ġm",
        "ay"
      ],
      [
        "Ãº",
        "p"
      ],
      [
        "ĠÄĳ",
        "Æ°a"
      ],
      [
        "w",
        "n"
      ],
      [
        "á»",
        "Ľ"
      ],
      [
        "l",
        "ud"
      ],
      [
        "Ġ-",
        "-"
      ],
      [
        "i",
        "ous"
      ],
      [
        "a",
        "il"
      ],
      [
        "a",
        "z"
      ],
      [
        "Ġtr",
        "anh"
      ],
      [
        "Ġth",
        "iáº¿t"
      ],
      [
        "Ġs",
        "Ä©"
      ],
      [
        "ĠÄĳ",
        "áº¥y"
      ],
      [
        "ĠI",
        "s"
      ],
      [
        "Ġc",
        "uá»ĳi"
      ],
      [
        "Ġt",
        "y"
      ],
      [
        "Ġb",
        "iá»ĩt"
      ],
      [
        "Ġcá»©",
        "u"
      ],
      [
        "á»",
        "Ŀi"
      ],
      [
        "Ġc",
        "áº¥p"
      ],
      [
        "Æ°á»Ľ",
        "ng"
      ],
      [
        "Ġn",
        "ay"
      ],
      [
        "áº³",
        "ng"
      ],
      [
        "ĠA",
        "n"
      ],
      [
        "Ġ",
        "áº£nh"
      ],
      [
        "el",
        "f"
      ],
      [
        "Ġs",
        "y"
      ],
      [
        "Ġph",
        "á»ĳ"
      ],
      [
        "ĳ",
        "ng"
      ],
      [
        "áº©",
        "n"
      ],
      [
        "ct",
        "ion"
      ],
      [
        "Ġgi",
        "áº£"
      ],
      [
        "u",
        "g"
      ],
      [
        "Ġch",
        "áº¿t"
      ],
      [
        "Ã©",
        "p"
      ],
      [
        "Ġs",
        "up"
      ],
      [
        "Ġ19",
        "4"
      ],
      [
        "Ġ",
        "Z"
      ],
      [
        "Ġb",
        "a"
      ],
      [
        "v",
        "ed"
      ],
      [
        "Ġs",
        "ay"
      ],
      [
        "Ġthá»",
        "§"
      ],
      [
        "f",
        "ore"
      ],
      [
        "áº¡",
        "m"
      ],
      [
        "Ġh",
        "el"
      ],
      [
        "Ġb",
        "ay"
      ],
      [
        "Ġs",
        "ec"
      ],
      [
        "Ġt",
        "áºŃp"
      ],
      [
        "Ġb",
        "á»ı"
      ],
      [
        "out",
        "h"
      ],
      [
        "Ġvá»",
        "±c"
      ],
      [
        "Ġag",
        "ain"
      ],
      [
        "in",
        "a"
      ],
      [
        "Ġc",
        "r"
      ],
      [
        "Ġf",
        "l"
      ],
      [
        "as",
        "ed"
      ],
      [
        "Ġw",
        "ay"
      ],
      [
        "c",
        "ed"
      ],
      [
        "o",
        "h"
      ],
      [
        "ĠnghÄ©",
        "a"
      ],
      [
        "ough",
        "t"
      ],
      [
        "Ġp",
        "re"
      ],
      [
        "Ġch",
        "Æ¡i"
      ],
      [
        "Ġy",
        "Ãªu"
      ],
      [
        "ĠÄ",
        "ĥ"
      ],
      [
        "áº©",
        "m"
      ],
      [
        "Ġgiá»¯",
        "a"
      ],
      [
        "Ġph",
        "im"
      ],
      [
        "ĠA",
        "s"
      ],
      [
        "in",
        "ce"
      ],
      [
        "Ã",
        "¨"
      ],
      [
        "áº§",
        "m"
      ],
      [
        "Ġv",
        "ery"
      ],
      [
        "Ġgi",
        "Ã¡o"
      ],
      [
        "at",
        "her"
      ],
      [
        "Ġwor",
        "ld"
      ],
      [
        "re",
        "at"
      ],
      [
        "b",
        "le"
      ],
      [
        "ĠN",
        "g"
      ],
      [
        "Ġc",
        "Ã¢u"
      ],
      [
        "Ġb",
        "Ã¡o"
      ],
      [
        "Ġma",
        "ke"
      ],
      [
        "Ġkho",
        "áº£ng"
      ],
      [
        "on",
        "t"
      ],
      [
        "ol",
        "og"
      ],
      [
        "Ġch",
        "u"
      ],
      [
        "f",
        "orm"
      ],
      [
        "Ġbec",
        "ause"
      ],
      [
        "il",
        "y"
      ],
      [
        "Ġcá»",
        "Ń"
      ],
      [
        "Ġph",
        "Ã¢n"
      ],
      [
        "Ġr",
        "em"
      ],
      [
        "Ġtr",
        "iá»ĥn"
      ],
      [
        "ĠÄĥ",
        "n"
      ],
      [
        "o",
        "ok"
      ],
      [
        "u",
        "ally"
      ],
      [
        "ĠTh",
        "ere"
      ],
      [
        "áº¡",
        "ch"
      ],
      [
        "g",
        "an"
      ],
      [
        "et",
        "t"
      ],
      [
        "Ġb",
        "Ãªn"
      ],
      [
        "Ġ1",
        "5"
      ],
      [
        "a",
        "ve"
      ],
      [
        "al",
        "s"
      ],
      [
        "Ġngh",
        "iá»ĩp"
      ],
      [
        "áº±",
        "m"
      ],
      [
        "ĠÄĳá»ģ",
        "u"
      ],
      [
        "Ġ",
        ".\"}"
      ],
      [
        "Ġt",
        "Ã¬nh"
      ],
      [
        "Ġngo",
        "Ãłi"
      ],
      [
        "Ġho",
        "áº¡t"
      ],
      [
        "Ġn",
        "am"
      ],
      [
        "Ġl",
        "Ãºc"
      ],
      [
        "Ġus",
        "ed"
      ],
      [
        "Ġg",
        "en"
      ],
      [
        "Ġh",
        "áº¿t"
      ],
      [
        "Ġw",
        "r"
      ],
      [
        "Ġt",
        "ay"
      ],
      [
        "N",
        "áº¿u"
      ],
      [
        "á»«",
        "ng"
      ],
      [
        "ĠÄĳá»ĭ",
        "a"
      ],
      [
        "Ġt",
        "iá»ģn"
      ],
      [
        "Ġcon",
        "s"
      ],
      [
        "g",
        "r"
      ],
      [
        "w",
        "ard"
      ],
      [
        "Ġk",
        "áº¿"
      ],
      [
        "Ġinc",
        "lud"
      ],
      [
        "Ġ19",
        "7"
      ],
      [
        "Ã²",
        "a"
      ],
      [
        "á»ĵ",
        "n"
      ],
      [
        "Ġta",
        "ke"
      ],
      [
        "Ġpl",
        "ay"
      ],
      [
        "Ġgi",
        "Ãºp"
      ],
      [
        "Ġg",
        "áº§n"
      ],
      [
        "Ġh",
        "iá»ĩu"
      ],
      [
        "ub",
        "l"
      ],
      [
        "uá»ĳ",
        "ng"
      ],
      [
        "á»ĩ",
        "t"
      ],
      [
        "Ġph",
        "Ã²ng"
      ],
      [
        "ĠH",
        "ow"
      ],
      [
        "eth",
        "ing"
      ],
      [
        "i",
        "k"
      ],
      [
        "Ġ1",
        "1"
      ],
      [
        "Ġh",
        "áº¯n"
      ],
      [
        "ow",
        "er"
      ],
      [
        "i",
        "x"
      ],
      [
        "Ġtá»",
        "¥"
      ],
      [
        "Ġt",
        "Æ°Æ¡ng"
      ],
      [
        "Ġin",
        "ter"
      ],
      [
        "Ġs",
        "Ã¡ng"
      ],
      [
        "Ġl",
        "a"
      ],
      [
        "Ġtá»«",
        "ng"
      ],
      [
        "Ġsa",
        "id"
      ],
      [
        "Ġthu",
        "áºŃt"
      ],
      [
        "ĠO",
        "n"
      ],
      [
        "ic",
        "t"
      ],
      [
        "Ġv",
        "áº¥n"
      ],
      [
        "ĠÄĳ",
        "Ã¡nh"
      ],
      [
        "ĠI",
        "f"
      ],
      [
        "ou",
        "p"
      ],
      [
        "Ġd",
        "ec"
      ],
      [
        "Ġb",
        "iáº¿n"
      ],
      [
        "Ġch",
        "áº¥t"
      ],
      [
        "w",
        "ay"
      ],
      [
        "Ġph",
        "Ã¡p"
      ],
      [
        "Ġph",
        "Æ°Æ¡ng"
      ],
      [
        "Ġth",
        "am"
      ],
      [
        "or",
        "k"
      ],
      [
        "Ġk",
        "inh"
      ],
      [
        "Ġf",
        "ound"
      ],
      [
        "Ġd",
        "if"
      ],
      [
        "Ġnh",
        "Ã¬n"
      ],
      [
        "Ġgo",
        "od"
      ],
      [
        "Ġth",
        "Ã´i"
      ],
      [
        "Ġthr",
        "ough"
      ],
      [
        "ĠÄĳ",
        "áº¥t"
      ],
      [
        "Ġtr",
        "uyá»ģn"
      ],
      [
        "Ġgiá»",
        "ĳng"
      ],
      [
        "Ġcá»",
        "ĳ"
      ],
      [
        "on",
        "na"
      ],
      [
        "uy",
        "á»ĩn"
      ],
      [
        "Ġx",
        "em"
      ],
      [
        "Ġm",
        "áº¥t"
      ],
      [
        "Ġre",
        "ally"
      ],
      [
        "op",
        "e"
      ],
      [
        "ĠW",
        "ell"
      ],
      [
        "Ġká»",
        "³"
      ],
      [
        "Æ°",
        "u"
      ],
      [
        "Ġt",
        "ell"
      ],
      [
        "Ã³",
        "m"
      ],
      [
        "Ġnh",
        "á»ı"
      ],
      [
        "Ġs",
        "Ã¡t"
      ],
      [
        "o",
        "ol"
      ],
      [
        "Ġg",
        "áº·p"
      ],
      [
        "b",
        "e"
      ],
      [
        "Ġt",
        "Ãłu"
      ],
      [
        "Ġd",
        "own"
      ],
      [
        "Ġc",
        "ount"
      ],
      [
        "c",
        "es"
      ],
      [
        "we",
        "en"
      ],
      [
        "Ġkh",
        "á»ıi"
      ],
      [
        "Ġman",
        "y"
      ],
      [
        "Ã©",
        "t"
      ],
      [
        "Ġph",
        "á»¥"
      ],
      [
        "Ġin",
        "d"
      ],
      [
        "ĠÄĳ",
        "áº·c"
      ],
      [
        "Ġth",
        "uá»Ļc"
      ],
      [
        "Ġl",
        "ong"
      ],
      [
        "Ġho",
        "Ãłn"
      ],
      [
        "er",
        "t"
      ],
      [
        "Ġgi",
        "Ã¡"
      ],
      [
        "ĠÄĳ",
        "iá»ĩn"
      ],
      [
        "Ġc",
        "ar"
      ],
      [
        "ĠM",
        "á»¹"
      ],
      [
        "id",
        "ent"
      ],
      [
        "S",
        "au"
      ],
      [
        "od",
        "y"
      ],
      [
        "th",
        "ing"
      ],
      [
        "Ġtr",
        "ÃŃ"
      ],
      [
        "Ġngh",
        "e"
      ],
      [
        "Ġl",
        "iá»ĩu"
      ],
      [
        "P",
        "h"
      ],
      [
        "Ġd",
        "Æ°á»Ľi"
      ],
      [
        "Ġ",
        "â"
      ],
      [
        "Ġsom",
        "ething"
      ],
      [
        "Ġ1",
        "7"
      ],
      [
        "Ġpro",
        "du"
      ],
      [
        "u",
        "a"
      ],
      [
        "Ġa",
        "cc"
      ],
      [
        "ĠS",
        "e"
      ],
      [
        ".\\\"",
        "\",\""
      ],
      [
        "Ġp",
        "ol"
      ],
      [
        "Ġsu",
        "ch"
      ],
      [
        "Ġ19",
        "6"
      ],
      [
        "ĠTr",
        "ung"
      ],
      [
        "Ġsp",
        "ec"
      ],
      [
        "Ġw",
        "ell"
      ],
      [
        "á»",
        "©"
      ],
      [
        "Ġn",
        "um"
      ],
      [
        "Ġin",
        "v"
      ],
      [
        "is",
        "e"
      ],
      [
        "Ġc",
        "ent"
      ],
      [
        "as",
        "h"
      ],
      [
        "á»",
        "Ĺ"
      ],
      [
        "Ã",
        "µ"
      ],
      [
        "c",
        "i"
      ],
      [
        "ĠÄĳ",
        "Æ¡n"
      ],
      [
        "Ġfor",
        "m"
      ],
      [
        "Ġsh",
        "ould"
      ],
      [
        "Ġr",
        "o"
      ],
      [
        "áº¯",
        "m"
      ],
      [
        "Ġth",
        "o"
      ],
      [
        "Ġd",
        "Ã¹ng"
      ],
      [
        "an",
        "n"
      ],
      [
        "ĠÄĳ",
        "áº¥u"
      ],
      [
        "Ġm",
        "áº¹"
      ],
      [
        "Ġbe",
        "fore"
      ],
      [
        "Ġd",
        "á»ĭch"
      ],
      [
        "i",
        "er"
      ],
      [
        "if",
        "ic"
      ],
      [
        "Ġp",
        "o"
      ],
      [
        "Ġtá»",
        "Ń"
      ],
      [
        "Ġre",
        "g"
      ],
      [
        "er",
        "m"
      ],
      [
        "Ġlá»",
        "Ŀi"
      ],
      [
        "ĠN",
        "am"
      ],
      [
        "Ġha",
        "pp"
      ],
      [
        "Ġqu",
        "áº£"
      ],
      [
        "Ġs",
        "Ã¡ch"
      ],
      [
        "at",
        "ing"
      ],
      [
        "Ġv",
        "Äĥn"
      ],
      [
        "Ġt",
        "Æ°á»Łng"
      ],
      [
        "itt",
        "le"
      ],
      [
        "Ġm",
        "ade"
      ],
      [
        "ĠC",
        "om"
      ],
      [
        "Ġh",
        "igh"
      ],
      [
        "N",
        "Äĥm"
      ],
      [
        "Ġd",
        "áº«n"
      ],
      [
        "y",
        "s"
      ],
      [
        "at",
        "t"
      ],
      [
        "ar",
        "s"
      ],
      [
        "Ġbet",
        "ween"
      ],
      [
        "Ġg",
        "onna"
      ],
      [
        "Ġchá»",
        "ĭ"
      ],
      [
        "Ġx",
        "Ã¡c"
      ],
      [
        "ĠvÃł",
        "i"
      ],
      [
        "st",
        "em"
      ],
      [
        "ĠHo",
        "a"
      ],
      [
        "Ġchiáº¿",
        "c"
      ],
      [
        "Ġm",
        "ang"
      ],
      [
        "Ġl",
        "ife"
      ],
      [
        "ĠÄĳ",
        "áº·t"
      ],
      [
        "Ġ",
        "end"
      ],
      [
        "\\\"",
        ","
      ],
      [
        "Ġb",
        "Ã¬nh"
      ],
      [
        "ĠÄĳ",
        "áº¡o"
      ],
      [
        "Ġmu",
        "ch"
      ],
      [
        "Ġb",
        "l"
      ],
      [
        "Ġe",
        "ven"
      ],
      [
        "ÄĲ",
        "Ã¢y"
      ],
      [
        "Ġd",
        "i"
      ],
      [
        "Ġt",
        "Æ°"
      ],
      [
        "f",
        "ul"
      ],
      [
        "ic",
        "s"
      ],
      [
        "Ġs",
        "m"
      ],
      [
        "Ġs",
        "ur"
      ],
      [
        "Ġth",
        "ree"
      ],
      [
        "Ġv",
        "Ã¹ng"
      ],
      [
        "Ġb",
        "á»ĩnh"
      ],
      [
        "Ġst",
        "art"
      ],
      [
        "Ġb",
        "el"
      ],
      [
        "it",
        "ies"
      ],
      [
        "or",
        "th"
      ],
      [
        "ĠD",
        "o"
      ],
      [
        "Ġnh",
        "áº¡c"
      ],
      [
        "Ġa",
        "c"
      ],
      [
        "u",
        "al"
      ],
      [
        "u",
        "c"
      ],
      [
        "ar",
        "ly"
      ],
      [
        "Ġd",
        "Ã¹"
      ],
      [
        "Ġth",
        "Æ°Æ¡ng"
      ],
      [
        "Ġt",
        "Äĥng"
      ],
      [
        "Ġf",
        "am"
      ],
      [
        "á»",
        "³"
      ],
      [
        "a",
        "ir"
      ],
      [
        "Ã¹",
        "a"
      ],
      [
        "Ġch",
        "áº¿"
      ],
      [
        "Nh",
        "á»¯ng"
      ],
      [
        "Ġb",
        "an"
      ],
      [
        "mer",
        "ic"
      ],
      [
        "Ġ",
        "á»©ng"
      ],
      [
        "Ġb",
        "Ãłi"
      ],
      [
        "e",
        "b"
      ],
      [
        "j",
        "ect"
      ],
      [
        "e",
        "ver"
      ],
      [
        "hi",
        "p"
      ],
      [
        "Ġm",
        "Ã´"
      ],
      [
        "á»",
        "Ŀ"
      ],
      [
        "áº¡",
        "y"
      ],
      [
        "ver",
        "n"
      ],
      [
        "Ġng",
        "ay"
      ],
      [
        "Ġv",
        "Ã´"
      ],
      [
        "o",
        "ve"
      ],
      [
        "Ġe",
        "v"
      ],
      [
        "ar",
        "g"
      ],
      [
        "Ġsu",
        "b"
      ],
      [
        "Ġquy",
        "áº¿t"
      ],
      [
        "Ġt",
        "Ãłi"
      ],
      [
        "e",
        "x"
      ],
      [
        "Ġx",
        "e"
      ],
      [
        "ÃŃ",
        "t"
      ],
      [
        "Ġt",
        "iÃªu"
      ],
      [
        "áº¯",
        "p"
      ],
      [
        "'",
        "d"
      ],
      [
        "e",
        "g"
      ],
      [
        "e",
        "k"
      ],
      [
        "Ġ19",
        "5"
      ],
      [
        "r",
        "al"
      ],
      [
        "Ã³",
        "c"
      ],
      [
        "Ġph",
        "áº©m"
      ],
      [
        "Ġ1",
        "6"
      ],
      [
        "Ġbe",
        "ing"
      ],
      [
        "ÄĲ",
        "Ã³"
      ],
      [
        "Ġne",
        "ver"
      ],
      [
        "Ġv",
        "iáº¿t"
      ],
      [
        "Ġtr",
        "áº»"
      ],
      [
        "im",
        "es"
      ],
      [
        "Ġlo",
        "Ãłi"
      ],
      [
        "ĠS",
        "p"
      ],
      [
        "in",
        "s"
      ],
      [
        "Ġl",
        "Ã£"
      ],
      [
        "ar",
        "l"
      ],
      [
        "Ġ",
        "âĢĵ"
      ],
      [
        "Ġk",
        "ill"
      ],
      [
        "Ġl",
        "ittle"
      ],
      [
        "Ġdo",
        "es"
      ],
      [
        "V",
        "Ãło"
      ],
      [
        "au",
        "gh"
      ],
      [
        "ĠK",
        "h"
      ],
      [
        "ang",
        "e"
      ],
      [
        "r",
        "ed"
      ],
      [
        "Ġt",
        "alk"
      ],
      [
        "ow",
        "s"
      ],
      [
        "E",
        "m"
      ],
      [
        "er",
        "n"
      ],
      [
        "Ġh",
        "á»ıi"
      ],
      [
        "Ġr",
        "et"
      ],
      [
        "Ġx",
        "áº£y"
      ],
      [
        "ĠA",
        "meric"
      ],
      [
        "v",
        "ing"
      ],
      [
        "Ġkh",
        "ÃŃ"
      ],
      [
        "ĠF",
        "or"
      ],
      [
        "Ġf",
        "in"
      ],
      [
        "ĠK",
        "á»³"
      ],
      [
        "Ġh",
        "iá»ĥu"
      ],
      [
        "Ġk",
        "á»ĥ"
      ],
      [
        "Ġus",
        "e"
      ],
      [
        "Ġs",
        "ame"
      ],
      [
        "Ġd",
        "ay"
      ],
      [
        "e",
        "y"
      ],
      [
        "Ġm",
        "inh"
      ],
      [
        "Ġg",
        "Ã¡i"
      ],
      [
        "Ġl",
        "áº¥y"
      ],
      [
        "Ġdif",
        "fer"
      ],
      [
        "Ġst",
        "ud"
      ],
      [
        "Ġchá»",
        "©ng"
      ],
      [
        "uy",
        "áº¿t"
      ],
      [
        "Ġt",
        "iáº¿n"
      ],
      [
        "Ġf",
        "ind"
      ],
      [
        "c",
        "o"
      ],
      [
        "Ġc",
        "a"
      ],
      [
        "£",
        "i"
      ],
      [
        "Ġnh",
        "iá»ĩm"
      ],
      [
        "d",
        "ay"
      ],
      [
        "Ġcom",
        "e"
      ],
      [
        "ter",
        "s"
      ],
      [
        "Ġtá»¥",
        "c"
      ],
      [
        "ĠM",
        "ay"
      ],
      [
        "ĠÄĳ",
        "Ãºng"
      ],
      [
        "H",
        "á»į"
      ],
      [
        "Ġ",
        "'"
      ],
      [
        "Ġo",
        "wn"
      ],
      [
        "2",
        "0"
      ],
      [
        "Ġn",
        "á»ķi"
      ],
      [
        "Ġg",
        "iáº¿t"
      ],
      [
        "Ġc",
        "ol"
      ],
      [
        "Ġm",
        "in"
      ],
      [
        "Ġtu",
        "á»ķi"
      ],
      [
        "Ġw",
        "on"
      ],
      [
        "Ġb",
        "Ã¡n"
      ],
      [
        "Ġar",
        "ound"
      ],
      [
        "Ġ",
        "Ã¢m"
      ],
      [
        "Ġhel",
        "p"
      ],
      [
        "iver",
        "s"
      ],
      [
        "Ġm",
        "on"
      ],
      [
        "Ġcáº£",
        "nh"
      ],
      [
        "Ġph",
        "Ã©p"
      ],
      [
        "Ġnh",
        "Ã³m"
      ],
      [
        "an",
        "y"
      ],
      [
        "Ġtr",
        "ans"
      ],
      [
        "ĠA",
        "ll"
      ],
      [
        "Ġng",
        "uyÃªn"
      ],
      [
        "Ġth",
        "ose"
      ],
      [
        "ĠI",
        "nd"
      ],
      [
        "it",
        "s"
      ],
      [
        "Ġph",
        "á»¥c"
      ],
      [
        "Ġlo",
        "c"
      ],
      [
        "al",
        "e"
      ],
      [
        "Ġv",
        "i"
      ],
      [
        "ĠA",
        "t"
      ],
      [
        "Ġká»",
        "·"
      ],
      [
        "ĠÄĳá»",
        "Ŀi"
      ],
      [
        "ĠÄĳ",
        "áº£o"
      ],
      [
        "Ġph",
        "á»§"
      ],
      [
        "Ġp",
        "op"
      ],
      [
        "ĠG",
        "r"
      ],
      [
        "ers",
        "on"
      ],
      [
        "Ġsy",
        "stem"
      ],
      [
        "K",
        "hi"
      ],
      [
        "Ġn",
        "áº±m"
      ],
      [
        "«",
        "a"
      ],
      [
        "Ġst",
        "ill"
      ],
      [
        "á»ĵ",
        "ng"
      ],
      [
        "i",
        "el"
      ],
      [
        "Ġat",
        "t"
      ],
      [
        "Ġl",
        "et"
      ],
      [
        "Ġn",
        "ame"
      ],
      [
        "Ġknow",
        "n"
      ],
      [
        "ĠT",
        "Ã´i"
      ],
      [
        "Ġ",
        "ent"
      ],
      [
        "Ġth",
        "ing"
      ],
      [
        "Ġth",
        "Ã¢n"
      ],
      [
        "ĠUn",
        "ited"
      ],
      [
        "ut",
        "ion"
      ],
      [
        "Ġng",
        "u"
      ],
      [
        "v",
        "es"
      ],
      [
        "Ġtr",
        "Ã²"
      ],
      [
        "ul",
        "l"
      ],
      [
        "Ġd",
        "uy"
      ],
      [
        "ow",
        "ing"
      ],
      [
        "Ġm",
        "áº¡nh"
      ],
      [
        "ib",
        "le"
      ],
      [
        "Ġo",
        "b"
      ],
      [
        "ĠÄĳ",
        "Ã¡ng"
      ],
      [
        "Ġvá»",
        "ĩ"
      ],
      [
        "o",
        "ot"
      ],
      [
        "Ġd",
        "Ãłi"
      ],
      [
        "Ì",
        "ĥ"
      ],
      [
        "Ġl",
        "ast"
      ],
      [
        "Th",
        "e"
      ],
      [
        "ĠC",
        "an"
      ],
      [
        "b",
        "um"
      ],
      [
        "is",
        "ion"
      ],
      [
        "ad",
        "y"
      ],
      [
        "m",
        "y"
      ],
      [
        "Ġd",
        "uring"
      ],
      [
        "V",
        "áºŃy"
      ],
      [
        "Ġch",
        "Ãº"
      ],
      [
        "ĠN",
        "ow"
      ],
      [
        "Ġcall",
        "ed"
      ],
      [
        "Ġm",
        "á»Ł"
      ],
      [
        "Ġde",
        "f"
      ],
      [
        "ĠI",
        "I"
      ],
      [
        "ous",
        "e"
      ],
      [
        "Ġngh",
        "á»ĩ"
      ],
      [
        "Ġd",
        "anh"
      ],
      [
        "Ġtr",
        "Æ°á»Łng"
      ],
      [
        "i",
        "um"
      ],
      [
        "un",
        "d"
      ],
      [
        "Ġm",
        "od"
      ],
      [
        "ch",
        "ool"
      ],
      [
        "ish",
        "ed"
      ],
      [
        "Ġpr",
        "ot"
      ],
      [
        "us",
        "s"
      ],
      [
        "Ġt",
        "ÃŃch"
      ],
      [
        "p",
        "ect"
      ],
      [
        "áº¡",
        "p"
      ],
      [
        "in",
        "es"
      ],
      [
        "et",
        "her"
      ],
      [
        "ĠÄĳ",
        "Ã¬nh"
      ],
      [
        "Ġth",
        "Ãªm"
      ],
      [
        "om",
        "an"
      ],
      [
        "Ġdid",
        "n"
      ],
      [
        "Ġt",
        "Æ°á»£ng"
      ],
      [
        "Ġlu",
        "Ã´n"
      ],
      [
        "e",
        "e"
      ],
      [
        "Ġc",
        "ap"
      ],
      [
        "Ġtr",
        "ang"
      ],
      [
        "\\\"",
        ".\"}"
      ],
      [
        "Ġb",
        "Ã©"
      ],
      [
        "Ġtr",
        "ai"
      ],
      [
        "Ġto",
        "o"
      ],
      [
        "Ġst",
        "r"
      ],
      [
        "Ġme",
        "an"
      ],
      [
        "Ġth",
        "áº§n"
      ],
      [
        "ap",
        "an"
      ],
      [
        "ĠT",
        "Ã¢y"
      ],
      [
        "ĠQ",
        "u"
      ],
      [
        "ou",
        "n"
      ],
      [
        "ul",
        "ar"
      ],
      [
        "ur",
        "y"
      ],
      [
        "áº¥",
        "m"
      ],
      [
        "Ġt",
        "inh"
      ],
      [
        "Ġngh",
        "iÃªn"
      ],
      [
        "y",
        "l"
      ],
      [
        "at",
        "ive"
      ],
      [
        "ĠG",
        "i"
      ],
      [
        "Ġsec",
        "ond"
      ],
      [
        "Ġch",
        "i"
      ],
      [
        "Ġmá»",
        "Ĺi"
      ],
      [
        "Ġ1",
        "4"
      ],
      [
        "ĠC",
        "on"
      ],
      [
        "vel",
        "op"
      ],
      [
        "Ã´",
        "m"
      ],
      [
        "Ġf",
        "il"
      ],
      [
        "ill",
        "ion"
      ],
      [
        "t",
        "ing"
      ],
      [
        "iáº¿",
        "m"
      ],
      [
        "Ġch",
        "ÃŃ"
      ],
      [
        "\\\"",
        ".\",\""
      ],
      [
        "Ġ",
        "ÃŃt"
      ],
      [
        "Ġde",
        "velop"
      ],
      [
        "Ġ19",
        "3"
      ],
      [
        "Ġd",
        "ist"
      ],
      [
        "an",
        "e"
      ],
      [
        "Ġth",
        "ings"
      ],
      [
        "u",
        "k"
      ],
      [
        "á»ķ",
        "ng"
      ],
      [
        "r",
        "on"
      ],
      [
        "ese",
        "nt"
      ],
      [
        "t",
        "on"
      ],
      [
        "Ġ1",
        "3"
      ],
      [
        "ur",
        "es"
      ],
      [
        "et",
        "s"
      ],
      [
        "Ã£",
        "i"
      ],
      [
        "Ġgi",
        "ao"
      ],
      [
        "Ġnh",
        "áºŃp"
      ],
      [
        "ĠM",
        "y"
      ],
      [
        "Ġb",
        "iá»ĥn"
      ],
      [
        "a",
        "e"
      ],
      [
        "Ġng",
        "á»¯"
      ],
      [
        "Ġg",
        "Ã¢y"
      ],
      [
        "Ġv",
        "iá»ĩn"
      ],
      [
        "Ġh",
        "á»Ļ"
      ],
      [
        "Ġb",
        "Ã³ng"
      ],
      [
        "Ġpl",
        "ace"
      ],
      [
        "Ġtr",
        "áº£"
      ],
      [
        "ar",
[...]
